{"vocab":{"<PAD>":0,"<UNK>":1,"<BOS>":2,"<EOS>":3," ":4,"!":5,"\"":6,"#":7,"$":8,"%":9,"&":10,"'":11,"(":12,")":13,"*":14,"+":15,",":16,"-":17,".":18,"/":19,"0":20,"1":21,"2":22,"3":23,"4":24,"5":25,"6":26,"7":27,"8":28,"9":29,":":30,";":31,"<":32,"=":33,">":34,"?":35,"@":36,"A":37,"B":38,"C":39,"D":40,"E":41,"F":42,"G":43,"H":44,"I":45,"J":46,"K":47,"L":48,"M":49,"N":50,"O":51,"P":52,"Q":53,"R":54,"S":55,"T":56,"U":57,"V":58,"W":59,"X":60,"Y":61,"Z":62,"[":63,"\\":64,"]":65,"^":66,"_":67,"`":68,"a":69,"b":70,"c":71,"d":72,"e":73,"f":74,"g":75,"h":76,"i":77,"j":78,"k":79,"l":80,"m":81,"n":82,"o":83,"p":84,"q":85,"r":86,"s":87,"t":88,"u":89,"v":90,"w":91,"x":92,"y":93,"z":94,"{":95,"|":96,"}":97,"~":98,"ä":99,"ö":100,"ü":101,"Ä":102,"Ö":103,"Ü":104,"ß":105,"€":106,"n</w>":107,"er":108,"e</w>":109,"ch":110,"en</w>":111,"t</w>":112,"..":113,"s</w>":114,"ei":115,"er</w>":116,"?</w>":117,"el":118,"nd":119,"ie</w>":120,"st":121,"....":122,",</w>":123,"sch":124,"en":125,"an":126,"ar":127,"un":128,"m</w>":129,"al":130,"der</w>":131,"die</w>":132,"g</w>":133,"ge":134,"as</w>":135,"on</w>":136,"au":137,"li":138,"ti":139,"wel":140,"or":141,"welch":142,"si":143,"........":144,"ein":145,"nd</w>":146,"te</w>":147,"-</w>":148,"ur":149,"es</w>":150,"ein</w>":151,"in</w>":152,"ver":153,"a</w>":154,"on":155,"hr":156,"in":157,"be":158,"is":159,"ha":160,".</w>":161,"ri":162,"ten</w>":163,"den</w>":164,"was</w>":165,"ch</w>":166,"von</w>":167,"re":168,"nein</w>":169,"zu":170,"ung</w>":171,"mi":172,"ol":173,"ra":174,"ro":175,"und</w>":176,"at":177,"wie</w>":178,"isch":179,"em</w>":180,"fü":181,"................":182,"la":183,"d</w>":184,"ist</w>":185,"iel":186,"gen</w>":187,"wi":188,"r</w>":189,"sp":190,"de</w>":191,"war":192,"welche</w>":193,"das</w>":194,"/</w>":195,"na":196,"wur":197,"ma":198,"et":199,"zu</w>":200,"f</w>":201,"ss":202,"0</w>":203,"ahr":204,"ent":205,"hat</w>":206,"ter":207,"te":208,"für</w>":209,"o</w>":210,"gi":211,"l</w>":212,"di":213,"ni":214,"cht</w>":215,"am":216,"om":217,"jahr":218,"we":219,"ab":220,"des</w>":221,"k</w>":222,"__":223,"wurde</w>":224,"rei":225,"ne":226,"um</w>":227,"de":228,"an</w>":229,"bi":230,"ber":231,"ann</w>":232,"i</w>":233,"lich":234,"wer</w>":235,"ben</w>":236,"sta":237,"eine</w>":238,"ge</w>":239,"nder":240,"le":241,"viel":242,"19":243,"war</w>":244,"zi":245,"wei":246,"ck":247,"wer":248,"se":249,"ff":250,"................................":251,"20":252,"gr":253,"auf</w>":254,"hi":255,"eit</w>":256,"op":257,"le</w>":258,"el</w>":259,"th":260,"tion</w>":261,"mit</w>":262,"gen":263,"men</w>":264,"us</w>":265,"ischen</w>":266,"ische</w>":267,"3</w>":268,"viele</w>":269,"tion":270,"als</w>":271,"welchem</w>":272,"im</w>":273,"y</w>":274,"bei":275,"pro":276,"rie":277,"as":278,"welcher</w>":279,"wann</w>":280,"sten</w>":281,"al</w>":282,"ert</w>":283,"z</w>":284,"wir":285,"sich</w>":286,"af":287,"tei":288,"me":289,"ut":290,"\"</w>":291,"kon":292,"fi":293,"sche</w>":294,"us":295,"nde":296,"ungen</w>":297,"ger":298,"eh":299,"ung":300,"welches</w>":301,"men":302,"2</w>":303,"sti":304,"ter</w>":305,"ho":306,"schen</w>":307,"ell":308,"1</w>":309,"vi":310,"che</w>":311,"wa":312,"lo":313,"____":314,"zei":315,"dem</w>":316,"ber</w>":317,"schi":318,"for":319,"kan":320,"werden</w>":321,"vor":322,"ste</w>":323,"kg</w>":324,"cht":325,"jahr</w>":326,"nen</w>":327,"schaf":328,"fr":329,"ak":330,"der":331,"tr":332,"lau":333,"sind</w>":334,"tä":335,"unter":336,"chen</w>":337,"hu":338,"ungs":339,"fl":340,"kö":341,"mo":342,"ur</w>":343,"aus</w>":344,"tra":345,"aus":346,"uni":347,"liche</w>":348,"etz":349,"sa":350,"so":351,"geb":352,"den":353,"5</w>":354,"kom":355,"ndet</w>":356,"her":357,"land</w>":358,"nt</w>":359,"auf":360,"4</w>":361,"lich</w>":362,"st</w>":363,"ba":364,"wird</w>":365,"hal":366,"ale</w>":367,"eri":368,"7</w>":369,"ben":370,"up":371,"wo":372,"201":373,"tu":374,"nden</w>":375,"8</w>":376,"lä":377,"wo</w>":378,"hei":379,"me</w>":380,"b</w>":381,"es":382,"00</w>":383,"gu":384,"gt</w>":385,"po":386,"wä":387,"einer</w>":388,"ali":389,"art</w>":390,"hä":391,"tet</w>":392,"nde</w>":393,"ul":394,"am</w>":395,"sel":396,"haben</w>":397,"wurden</w>":398,"ap":399,"gel":400,"ndi":401,"nicht</w>":402,"lie":403,"gesch":404,"sam":405,"erung</w>":406,"tt":407,"rä":408,"dur":409,"zwei":410,"min":411,"mand":412,"mp":413,"fa":414,"wor":415,"................................................................":416,"nach</w>":417,"über</w>":418,"ür":419,"ru":420,"to":421,"spiel":422,"ta":423,"tz":424,"einen</w>":425,"lei":426,"bo":427,"qu":428,"ass</w>":429,"ander":430,"ek":431,"c</w>":432,"su":433,"ihr":434,"mar":435,"beg":436,"oder</w>":437,"(</w>":438,"he":439,"gro":440,"ger</w>":441,"sy":442,"lan":443,"ki":444,"200":445,"6</w>":446,"tte</w>":447,"ze":448,"dass</w>":449,"führ":450,"erte</w>":451,"u</w>":452,"über":453,"schaft</w>":454,"nor":455,"ges":456,"wen":457,"eren</w>":458,"mm":459,"groß":460,"sie</w>":461,"oll":462,"einem</w>":463,"regi":464,"eini":465,"lichen</w>":466,"sen":467,"ssen</w>":468,"h</w>":469,"da":470,"welchen</w>":471,"bu":472,"stad":473,"sch</w>":474,"ern</w>":475,"lin":476,"anz":477,"9</w>":478,"alen</w>":479,"par":480,"bt</w>":481,"verwe":482,"________":483,"wick":484,"isch</w>":485,"stell":486,"all":487,"hen</w>":488,"man":489,"krie":490,"ad":491,"entwick":492,"chte</w>":493,"tät</w>":494,"18":495,"bar":496,"tionen</w>":497,"ation</w>":498,"hö":499,"stro":500,"gra":501,"stä":502,"no":503,")</w>":504,"mu":505,"upp":506,"se</w>":507,"hl":508,"bri":509,"kla":510,"hunder":511,"recht":512,"tische</w>":513,"um":514,"arbei":515,"öff":516,"du":517,"bei</w>":518,"ft</w>":519,"bil":520,"stadt</w>":521,"teil</w>":522,"lu":523,"versi":524,"ci":525,"ste":526,"son":527,"inter":528,"hn":529,"hr</w>":530,"zeit</w>":531,"eli":532,"durch</w>":533,"blau":534,"mus</w>":535,"fe":536,"mei":537,"jahrhunder":538,"keit</w>":539,"ameri":540,"mon":541,"ts</w>":542,"eines</w>":543,"tiv":544,"wech":545,"ke":546,"zw":547,"wenn</w>":548,"ck</w>":549,"fen</w>":550,"per":551,"nder</w>":552,"lung</w>":553,"ko":554,"strom</w>":555,"hatte</w>":556,"sen</w>":557,"fol":558,"wechsel":559,"20</w>":560,"gol":561,"prä":562,"or</w>":563,"vo":564,"gan":565,"w</w>":566,"ala":567,"ran":568,"gte</w>":569,"spra":570,"gung</w>":571,"reich</w>":572,"jo":573,"blauer</w>":574,"lli":575,"ori":576,"end</w>":577,"nation":578,"jahre</w>":579,"öffent":580,"ar</w>":581,"öß":582,"ant":583,"ty</w>":584,"sat":585,"zwei</w>":586,"zum</w>":587,"stu":588,"neu":589,"verwendet</w>":590,"staa":591,"kön":592,"ern":593,"pf":594,"ra</w>":595,"ts":596,"ff</w>":597,"vor</w>":598,"co":599,"wechselstrom</w>":600,"000</w>":601,"xi":602,"tin":603,"utz":604,"dat":605,"größ":606,"ster</w>":607,"ing</w>":608,"do":609,"öl":610,"heit</w>":611,"krieg</w>":612,"pre":613,"ssa":614,"je":615,"tung</w>":616,"kat":617,"the":618,"grupp":619,"ssi":620,"♪</w>":621,"universi":622,"hl</w>":623,"ere</w>":624,"ismus</w>":625,"zent":626,"hmen</w>":627,"warum</w>":628,"währ":629,"basi":630,"hand":631,"rü":632,"ub":633,"gem":634,"flu":635,"olo":636,"waren</w>":637,"ce</w>":638,"chi":639,"hau":640,"ffen</w>":641,"ne</w>":642,"ph":643,"köni":644,"stra":645,"ß</w>":646,"schie":647,"gold</w>":648,"grü":649,"ets":650,"vol":651,"mandol":652,"mandola</w>":653,"ab</w>":654,"elle</w>":655,"bis</w>":656,"mitt":657,"kt</w>":658,"go":659,"frü":660,"viel</w>":661,"onen</w>":662,"jahrhundert</w>":663,"phi":664,"—</w>":665,"%</w>":666,"ju":667,"ka":668,"macht</w>":669,"ßer</w>":670,"poli":671,"haup":672,"vom</w>":673,"heiß":674,"met":675,"mer":676,"deut":677,"mä":678,"eht</w>":679,"während</w>":680,"erste</w>":681,"chti":682,"eur":683,"dar":684,"p</w>":685,"fu":686,"re</w>":687,"zwischen</w>":688,"ihre</w>":689,"x</w>":690,"fin":691,"ken</w>":692,"ien</w>":693,"ersten</w>":694,"lien</w>":695,"ölk":696,"völk":697,"zeich":698,"alae</w>":699,"lt</w>":700,"hn</w>":701,"erv":702,"tri":703,"ler</w>":704,"dies":705,"drei":706,"eng":707,"präsi":708,"he</w>":709,"vereini":710,"ex":711,"gerä":712,"augu":713,"ent</w>":714,"199":715,"nte</w>":716,"sü":717,"et</w>":718,"europ":719,"gel</w>":720,"august":721,"stat":722,"eder":723,"annt</w>":724,"etsgi":725,"komm":726,"ssache</w>":727,"rechtssache</w>":728,"zur</w>":729,"uss</w>":730,"nach":731,"gie</w>":732,"etsgietsgi":733,"ziel":734,"rin":735,"del":736,"zusam":737,"mit":738,"man</w>":739,"kehr":740,"augustus</w>":741,"gie":742,"daten":743,"v</w>":744,"menschen</w>":745,"yp":746,"net</w>":747,"stem</w>":748,"pol":749,"ag":750,"ft":751,"geri":752,"ka</w>":753,"kar":754,"ken":755,"kor":756,"2013</w>":757,"son</w>":758,"lat":759,"gibt</w>":760,"etzt</w>":761,"pi":762,"heißt</w>":763,"ang":764,"andere</w>":765,"produ":766,"dschi":767,"sse</w>":768,"ör":769,"oren</w>":770,"indi":771,"12</w>":772,"off":773,"gten</w>":774,"erd":775,"ende</w>":776,"________________":777,"ton</w>":778,"grie":779,"weißer</w>":780,"gew":781,"gkeit</w>":782,"gebi":783,"kann</w>":784,"por":785,"ges</w>":786,"zeu":787,"sein</w>":788,"fä":789,"bevölk":790,"kul":791,"arbeit":792,"tre":793,"arb":794,"tischen</w>":795,"rau":796,"all</w>":797,"bezi":798,"welt":799,"reli":800,"mat":801,"ütz":802,"seine</w>":803,"entwicklung</w>":804,"ten":805,"name</w>":806,"bekan":807,"elt</w>":808,"bau":809,"staaten</w>":810,"wis":811,"rö":812,"chten</w>":813,"len</w>":814,"präsiden":815,"kt":816,"197":817,"pa":818,"'</w>":819,"kir":820,"religi":821,"siert</w>":822,"ato":823,"können</w>":824,"veröffent":825,"chin":826,"gegen</w>":827,"geräte</w>":828,"licht</w>":829,"dri":830,"riff</w>":831,"mehr</w>":832,"milli":833,"sä":834,"sie":835,"amerikan":836,"sver":837,"pub":838,"jahren</w>":839,"span":840,"sprache</w>":841,"of</w>":842,"halten</w>":843,"63</w>":844,"tt</w>":845,"ank":846,"drei</w>":847,"ari":848,"besch":849,"änder":850,"anato":851,"ol</w>":852,"satz</w>":853,"musi":854,"und":855,"ei</w>":856,"star":857,"th</w>":858,"ente</w>":859,"einige</w>":860,"stimm":861,"findet</w>":862,"com":863,"anatolien</w>":864,"hm":865,"ens</w>":866,"................................................................................................................................":867,"glie":868,"kra":869,"ds</w>":870,"kontin":871,"stan":872,"eln</w>":873,"schri":874,"ke</w>":875,"mal</w>":876,"bel":877,"kü":878,"198":879,"frei":880,"wür":881,"gruppe</w>":882,"hin":883,"ange":884,"führt</w>":885,"schla":886,"nehmen</w>":887,"arin</w>":888,"sion</w>":889,"algeb":890,"flug":891,"17":892,"ind":893,"erva</w>":894,"minerva</w>":895,"griech":896,"west":897,"ßen</w>":898,"char":899,"chri":900,"sser</w>":901,"ldschi":902,"system</w>":903,"mandarin</w>":904,"berei":905,"tan":906,"mini":907,"ellen</w>":908,"durch":909,"präsident</w>":910,"ldschildschi":911,"ir":912,"wach":913,"ng":914,"chtet</w>":915,"organ":916,"mitglie":917,"genom":918,"har":919,"sol":920,"verarbeit":921,"wirt":922,"fahr":923,"ma</w>":924,"sehen</w>":925,"enz":926,"new</w>":927,"hän":928,"verarbeitungs":929,"publi":930,"basid</w>":931,"stand":932,"bevölkerung</w>":933,"fer":934,"fra":935,"abbasid</w>":936,"wissen":937,"algebra</w>":938,"haupt":939,"gs</w>":940,"datenverarbeitungs":941,"bra":942,"fizi":943,"wichti":944,"tes</w>":945,"nis</w>":946,"tel</w>":947,"scher</w>":948,"datenverarbeitungsgeräte</w>":949,"nung</w>":950,"vereinigten</w>":951,"hy":952,"bur":953,"kl":954,"begann</w>":955,"ausge":956,"sk":957,"nord":958,"tro":959,"mili":960,"tete</w>":961,"unk":962,"50</w>":963,"schul":964,"sische</w>":965,"ga":966,"anderen</w>":967,"beng":968,"mber</w>":969,"ku":970,"sischen</w>":971,"gab</w>":972,"fe</w>":973,"ve":974,"meisten</w>":975,"bekannt</w>":976,"pal":977,"fte</w>":978,"stellt</w>":979,"by":980,"wahr":981,"din":982,"zur":983,"tten</w>":984,"il":985,"kehrsver":986,"glau":987,"kre":988,"pfel</w>":989,"ort</w>":990,"rieben</w>":991,"zo":992,"lange</w>":993,"europä":994,"ren</w>":995,"etz</w>":996,"könig":997,"nah":998,"genannt</w>":999,"unternehmen</w>":1000,"ndung</w>":1001,"ele":1002,"col":1003,"land":1004,"erten</w>":1005,"vertra":1006,"ms</w>":1007,"auch</w>":1008,"ven":1009,"zeit":1010,"ust":1011,"ment</w>":1012,"steht</w>":1013,"große</w>":1014,"ner</w>":1015,"ang</w>":1016,"kehrsverkehrsver":1017,"arten</w>":1018,"franz":1019,"letz":1020,"bengalen</w>":1021,"fo":1022,"the</w>":1023,"äpfel</w>":1024,"tech":1025,"mio</w>":1026,"deck":1027,"is</w>":1028,"ober":1029,"stam":1030,"unter</w>":1031,"spiel</w>":1032,"za":1033,"ron":1034,"studi":1035,"stand</w>":1036,"forma":1037,"spe":1038,"stitu":1039,"stütz":1040,"mus":1041,"her</w>":1042,"zurü":1043,"begriff</w>":1044,"setz":1045,"au</w>":1046,"gesetz</w>":1047,"ener":1048,"erdäpfel</w>":1049,"47</w>":1050,"nieder":1051,"zusammen</w>":1052,"süd":1053,"ständi":1054,"na</w>":1055,"schu":1056,"ve</w>":1057,"republi":1058,"wofür</w>":1059,"71</w>":1060,"ster":1061,"sei":1062,"som":1063,"iert</w>":1064,"staat":1065,"genommen</w>":1066,"komp":1067,"ta</w>":1068,"welt</w>":1069,"sto":1070,"eg":1071,"voll":1072,"sozi":1073,"kommen</w>":1074,"internation":1075,"einge":1076,"mor":1077,"to</w>":1078,"ologie</w>":1079,"musik</w>":1080,"geben</w>":1081,"befindet</w>":1082,"unterstütz":1083,"kirche</w>":1084,"mittel":1085,"dung</w>":1086,"hie":1087,"hoch</w>":1088,"benutz":1089,"ii</w>":1090,"spi":1091,"10</w>":1092,"veröffentlicht</w>":1093,"tive</w>":1094,"id":1095,"ursa":1096,"gemein":1097,"nur</w>":1098,"bür":1099,"ker</w>":1100,"universität</w>":1101,"john</w>":1102,"90</w>":1103,"reich":1104,"millionen</w>":1105,"form</w>":1106,"sor":1107,"regierung</w>":1108,"stor":1109,"ndern</w>":1110,"pop":1111,"at</w>":1112,"gh":1113,"gemacht</w>":1114,"19</w>":1115,"hieß</w>":1116,"ischer</w>":1117,"tag</w>":1118,"ursp":1119,"194":1120,"wil":1121,"kam":1122,"produk":1123,"mische</w>":1124,"zeichnet</w>":1125,"ini":1126,"kontinente</w>":1127,"plat":1128,"mehr":1129,"eig":1130,"schei":1131,"spre":1132,"schaft":1133,"militä":1134,"klassi":1135,"oft</w>":1136,"einzi":1137,"glei":1138,"pe":1139,"gram":1140,"schwar":1141,"los":1142,"ser":1143,"inn":1144,"city</w>":1145,"nten</w>":1146,"fil":1147,"geschi":1148,"deu":1149,"holi":1150,"erungs":1151,"cor":1152,"30</w>":1153,"affen</w>":1154,"ons</w>":1155,"länd":1156,"wal":1157,"196":1158,"tei</w>":1159,"ute</w>":1160,"tur":1161,"schaften</w>":1162,"grund":1163,"statt</w>":1164,"hol":1165,"olle</w>":1166,"cher</w>":1167,"äu":1168,"lond":1169,"bezieh":1170,"schlie":1171,"pas":1172,"zentr":1173,"zeh":1174,"dro":1175,"tran":1176,"katholi":1177,"671</w>":1178,"gesetz":1179,"gründet</w>":1180,"ban":1181,"leben</w>":1182,"ob":1183,"bewer":1184,"kal":1185,"nien</w>":1186,"institu":1187,"imp":1188,"api":1189,"alle</w>":1190,"hom":1191,"tiert</w>":1192,"usa</w>":1193,"ekt</w>":1194,"gegründet</w>":1195,"onnen</w>":1196,"nutz":1197,"zug</w>":1198,"bü":1199,"größte</w>":1200,"frank":1201,"ast</w>":1202,"con":1203,"vollständi":1204,"christ":1205,"sel</w>":1206,"giegie":1207,"franzö":1208,"fün":1209,"teil":1210,"berü":1211,"agu":1212,"etsgietsgietsgietsgi":1213,"herr":1214,"bte</w>":1215,"fand</w>":1216,"kol":1217,"hiel":1218,"recht</w>":1219,"archi":1220,"würde</w>":1221,"2010</w>":1222,"gegen":1223,"347</w>":1224,"staat</w>":1225,"alität</w>":1226,"afri":1227,"ren":1228,"wem</w>":1229,"ca</w>":1230,"'s</w>":1231,"verk":1232,"bewe":1233,"dien":1234,"seit</w>":1235,"wort</w>":1236,"rieb</w>":1237,"ca":1238,"syste":1239,"car":1240,"det</w>":1241,"lage</w>":1242,"philos":1243,"städ":1244,"nä":1245,"val":1246,"tigen</w>":1247,"tions":1248,"kri":1249,"fluss</w>":1250,"könig</w>":1251,"rich":1252,"jap":1253,"arme":1254,"republik</w>":1255,"posi":1256,"18</w>":1257,"grund</w>":1258,"stru":1259,"gre":1260,"op</w>":1261,"volu":1262,"standar":1263,"verschie":1264,"kam</w>":1265,"zer":1266,"dis":1267,"philosop":1268,"ad</w>":1269,"fass":1270,"eigen":1271,"prei":1272,"leben":1273,"ollte</w>":1274,"schwarz":1275,"vertrag</w>":1276,"kur":1277,"mensch":1278,"proz":1279,"regel</w>":1280,"ater</w>":1281,"diese</w>":1282,"engli":1283,"alter</w>":1284,"feh":1285,"hör":1286,"noch</w>":1287,"bedeu":1288,"zep":1289,"grenz":1290,"nat":1291,"portu":1292,"che":1293,"gebiet</w>":1294,"flanz":1295,"pflanz":1296,"leagu":1297,"league</w>":1298,"mis":1299,"bli":1300,"aut</w>":1301,"oni":1302,"ins</w>":1303,"chr</w>":1304,"wet":1305,"ven</w>":1306,"neben</w>":1307,"comp":1308,"ufi":1309,"tex":1310,"moder":1311,"ell</w>":1312,"va":1313,"ndete</w>":1314,"weise</w>":1315,"gener":1316,"________________________________":1317,"namen</w>":1318,"hatten</w>":1319,"university</w>":1320,"äg":1321,"wirk":1322,"tern</w>":1323,"tun</w>":1324,"stamm":1325,"gend":1326,"wohn":1327,"mischen</w>":1328,"elek":1329,"region</w>":1330,"be</w>":1331,"fern":1332,"bereich</w>":1333,"dd":1334,"länder</w>":1335,"geschrieben</w>":1336,"ehen</w>":1337,"clu":1338,"yor":1339,"gn":1340,"gs":1341,"wand":1342,"rück":1343,"tik</w>":1344,"handel":1345,"jä":1346,"allgem":1347,"15</w>":1348,"akter":1349,"kommuni":1350,"scho":1351,"hält</w>":1352,"vertei":1353,"195":1354,"organis":1355,"betra":1356,"sh":1357,"jun":1358,"samm":1359,"kör":1360,"stal":1361,"aut":1362,"stre":1363,"rus":1364,"sser":1365,"geor":1366,"gefü":1367,"so</w>":1368,"anti":1369,"olog":1370,"pun":1371,"weni":1372,"os</w>":1373,"spro":1374,"dau":1375,"dom":1376,"ursprü":1377,"hafen</w>":1378,"häufi":1379,"................................................":1380,"lichkeit</w>":1381,"religion</w>":1382,"bre":1383,"tragen</w>":1384,"selb":1385,"anische</w>":1386,"verschieden":1387,"ll":1388,"beri":1389,"erfol":1390,"versu":1391,"2011</w>":1392,"da</w>":1393,"ägyp":1394,"13</w>":1395,"sten":1396,"one</w>":1397,"defin":1398,"2007</w>":1399,"stische</w>":1400,"gar":1401,"verl":1402,"isla":1403,"medi":1404,"gele":1405,"ften</w>":1406,"gestellt</w>":1407,"bürger":1408,"wieder":1409,"wähl":1410,"mal":1411,"ja":1412,"isches</w>":1413,"union</w>":1414,"entwickelt</w>":1415,"gebaut</w>":1416,"schulen</w>":1417,"program":1418,"gruppen</w>":1419,"iden":1420,"ide":1421,"london</w>":1422,"ss</w>":1423,"antwor":1424,"täten</w>":1425,"york</w>":1426,"lossen</w>":1427,"berühm":1428,"ssen":1429,"lehr":1430,"bestimm":1431,"verursa":1432,"premi":1433,"pla":1434,"tradi":1435,"spiele</w>":1436,"hielt</w>":1437,"schlacht</w>":1438,"trau":1439,"prote":1440,"finden</w>":1441,"licher</w>":1442,"mmer</w>":1443,"bru":1444,"temp":1445,"armen":1446,"luft":1447,"erat":1448,"lü":1449,"unterschie":1450,"britan":1451,"sehr</w>":1452,"mö":1453,"van":1454,"........................................................":1455,"............................................................":1456,"krä":1457,"ursprüng":1458,"tig</w>":1459,"führte</w>":1460,"tisch</w>":1461,"ann":1462,"erhal":1463,"neue</w>":1464,"les</w>":1465,"san":1466,"verfass":1467,"shi":1468,"alt</w>":1469,"ko</w>":1470,"sprachen</w>":1471,"60</w>":1472,"volk":1473,"enten</w>":1474,"fre":1475,"beiden</w>":1476,"cher":1477,"ffe</w>":1478,"vers":1479,"besu":1480,"organisation</w>":1481,"end":1482,"spor":1483,"tren":1484,"jahrhunderts</w>":1485,"kontr":1486,"tiv</w>":1487,"seiner</w>":1488,"\"?</w>":1489,"nan":1490,"co</w>":1491,"sisch</w>":1492,"offi":1493,"2009</w>":1494,"mü":1495,"prozent":1496,"os":1497,"kei":1498,"anderer</w>":1499,"klä":1500,"verantwor":1501,"teile</w>":1502,"techn":1503,"geführt</w>":1504,"amerika</w>":1505,"arab":1506,"64</w>":1507,"tau":1508,"tel":1509,"zurück":1510,"verteidi":1511,"tho":1512,"großen</w>":1513,"sex":1514,"verein":1515,"armee</w>":1516,"geschaffen</w>":1517,"willi":1518,"2012</w>":1519,"gang</w>":1520,"insel</w>":1521,"fei":1522,"zeichen</w>":1523,"ws</w>":1524,"schließ":1525,"straß":1526,"ps</w>":1527,"eg</w>":1528,"kais":1529,"zin":1530,"frankreich</w>":1531,"musli":1532,"vollständiges</w>":1533,"wett":1534,"gesell":1535,"lassen</w>":1536,"bet":1537,"arbeit</w>":1538,"ösen</w>":1539,"vier":1540,"könnte</w>":1541,"wirtschaft</w>":1542,"idol</w>":1543,"demo":1544,"hnen</w>":1545,"ord":1546,"wie":1547,"revolu":1548,"................................................................................................................................................................................................":1549,"............................................................................................................................................................................................................................................................":1550,"passiert</w>":1551,"weiter":1552,"sexu":1553,"tzu</w>":1554,"verbi":1555,"ldschildschildschildschi":1556,"sep":1557,"sho":1558,"hua</w>":1559,"gab":1560,"neuen</w>":1561,".-</w>":1562,"ziel</w>":1563,"sonnen</w>":1564,"zusammen":1565,"uren</w>":1566,"fan":1567,"park</w>":1568,"farb":1569,"theor":1570,"sow":1571,"trä":1572,"richt":1573,"14</w>":1574,"40</w>":1575,"dam":1576,"dra":1577,"dazu</w>":1578,"wettbewer":1579,"ib":1580,"aner</w>":1581,"prozentsatz</w>":1582,"que":1583,"ly":1584,"han</w>":1585,"bar</w>":1586,"pro</w>":1587,"bs</w>":1588,"funk":1589,"wasser":1590,"vier</w>":1591,"bewegung</w>":1592,"bibli":1593,"hay":1594,"skla":1595,"hel":1596,"zä":1597,"bedeutet</w>":1598,"gesetzt</w>":1599,"fa</w>":1600,"ry</w>":1601,"leist":1602,"tlich</w>":1603,"fluss":1604,"rung</w>":1605,"chop":1606,"nahmen</w>":1607,"konf":1608,"archite":1609,"pri":1610,"pra":1611,"strei":1612,"kräfte</w>":1613,"china</w>":1614,"isra":1615,"tze</w>":1616,"ison</w>":1617,"schni":1618,"don":1619,"dru":1620,"gerung</w>":1621,"lebens":1622,"hoch":1623,"heiten</w>":1624,"nen":1625,"nungen</w>":1626,"großbritan":1627,"königreich</w>":1628,"titel</w>":1629,"it":1630,"zen</w>":1631,"kran":1632,"auto":1633,"führer</w>":1634,"schn":1635,"nachdem</w>":1636,"ust</w>":1637,"begin":1638,"alismus</w>":1639,"frie":1640,"erlau":1641,"vin":1642,"kro":1643,"wohl</w>":1644,"ine</w>":1645,"ereig":1646,"demokra":1647,"buch</w>":1648,"ekte</w>":1649,"colle":1650,"trupp":1651,"sagte</w>":1652,"per</w>":1653,"brau":1654,"brei":1655,"amerikanische</w>":1656,"bemer":1657,"gesehen</w>":1658,"hängi":1659,"abhängi":1660,"ziert</w>":1661,"tür":1662,"mitglieder</w>":1663,"schule</w>":1664,"identi":1665,"energie</w>":1666,"höch":1667,"jähr":1668,"person":1669,"eten</w>":1670,"plan":1671,"mexi":1672,"phy":1673,"schrieb</w>":1674,"hi</w>":1675,"cke</w>":1676,"ene</w>":1677,"ea</w>":1678,"mer</w>":1679,"metho":1680,"fähi":1681,"zeugen</w>":1682,"25</w>":1683,"person</w>":1684,"2014</w>":1685,"esen</w>":1686,"bat":1687,"indust":1688,"versch":1689,"tige</w>":1690,"deutsch":1691,"kä":1692,"bio":1693,"keine</w>":1694,"whi":1695,"up</w>":1696,"anteil</w>":1697,"allen</w>":1698,"17</w>":1699,"ot":1700,"kehrsverkehrsverkehrsverkehrsver":1701,"lle</w>":1702,"amerikanischen</w>":1703,"ihrer</w>":1704,"akt":1705,"cent":1706,"nami":1707,"wissenschaft":1708,"budd":1709,"15":1710,"sh</w>":1711,"16</w>":1712,"untersu":1713,"app":1714,"uth</w>":1715,"wen</w>":1716,"sek":1717,"tierte</w>":1718,"anischen</w>":1719,"städte</w>":1720,"sin":1721,"ktur</w>":1722,"stri":1723,"biblio":1724,"stellen</w>":1725,"finanz":1726,"philosoph":1727,"seinen</w>":1728,"letzte</w>":1729,"nahme</w>":1730,"gste</w>":1731,"stoff":1732,"män":1733,"ht</w>":1734,"stoff</w>":1735,"veränder":1736,"hing":1737,"pan":1738,"bezug</w>":1739,"konzep":1740,"indien</w>":1741,"flü":1742,"det":1743,"ssy":1744,"bildung</w>":1745,"prozent</w>":1746,"ed":1747,"west</w>":1748,"verwal":1749,"chine":1750,"can</w>":1751,"nis":1752,"univers":1753,"ihren</w>":1754,"stieg</w>":1755,"rie</w>":1756,"mau":1757,"alien</w>":1758,"mente</w>":1759,"gien</w>":1760,"geschlossen</w>":1761,"britische</w>":1762,"zweiten</w>":1763,"groß</w>":1764,"öder":1765,"gene</w>":1766,"kop":1767,"ähn":1768,"kun":1769,"standard</w>":1770,"europäischen</w>":1771,"heili":1772,"ir</w>":1773,"alt":1774,"setzt</w>":1775,"materi":1776,"erhalb</w>":1777,"ver</w>":1778,"ut</w>":1779,"herr</w>":1780,"wert</w>":1781,"linie</w>":1782,"forder":1783,"tiven</w>":1784,"tik":1785,"ld</w>":1786,"yo":1787,"eisen":1788,"histor":1789,"domini":1790,"olin":1791,"hlen</w>":1792,"dieser</w>":1793,"bert</w>":1794,"ahua</w>":1795,"sa</w>":1796,"truppen</w>":1797,"lagen</w>":1798,"thodo":1799,"dell</w>":1800,"pat":1801,"informa":1802,"ac":1803,"chs</w>":1804,"för":1805,"sprechen</w>":1806,"partei</w>":1807,"nasser</w>":1808,"team</w>":1809,"ers</w>":1810,"spar":1811,"str":1812,"em":1813,"film</w>":1814,"politische</w>":1815,"großbritannien</w>":1816,"ela":1817,"misch</w>":1818,"cam":1819,"saison</w>":1820,"aler</w>":1821,"beziehung</w>":1822,"200</w>":1823,"fer</w>":1824,"bro":1825,"mut":1826,"vide":1827,"ndungen</w>":1828,"frühen</w>":1829,"mil":1830,"chter</w>":1831,"was":1832,"kommt</w>":1833,"fünf</w>":1834,"gegeben</w>":1835,"weltkrieg</w>":1836,"ker":1837,"pp":1838,"mög":1839,"haus</w>":1840,"verantwortlich</w>":1841,"unabhängi":1842,"gebra":1843,"chihu":1844,"chihuahua</w>":1845,"ya</w>":1846,"tor":1847,"fall</w>":1848,"li</w>":1849,"kanad":1850,"sla":1851,"bunde":1852,"tic</w>":1853,"sagt</w>":1854,"revolution</w>":1855,"2006</w>":1856,"sollte</w>":1857,"100</w>":1858,"aber</w>":1859,"europa</w>":1860,"vari":1861,"okla":1862,"uri":1863,"rd</w>":1864,"gewi":1865,"geschichte</w>":1866,"alter":1867,"gende</w>":1868,"einfluss":1869,"körper":1870,"ball</w>":1871,"seln</w>":1872,":</w>":1873,"ze</w>":1874,"wär":1875,"britischen</w>":1876,"entschei":1877,"gebracht</w>":1878,"washing":1879,"schein":1880,"zel":1881,"sso":1882,"ägypten</w>":1883,"ktion</w>":1884,"gela":1885,"juni</w>":1886,"enz</w>":1887,"wissenschaft</w>":1888,"sicher":1889,"yon":1890,"ro</w>":1891,"prin":1892,"endete</w>":1893,"nie":1894,"jedes</w>":1895,"thodox":1896,"quad":1897,"lö":1898,"gkei":1899,"polizei":1900,"preu":1901,"beru":1902,"sche":1903,"minister</w>":1904,"win":1905,"traum</w>":1906,"193":1907,"serv":1908,"häl":1909,"armenien</w>":1910,"center</w>":1911,"pu":1912,"quadra":1913,"rän":1914,"protestan":1915,"ül":1916,"verfü":1917,"flugzeu":1918,"gebäu":1919,"cken</w>":1920,"gewin":1921,"spezi":1922,"atlan":1923,"oklahom":1924,"eben":1925,"funden</w>":1926,"ware</w>":1927,"klasse</w>":1928,"hil":1929,"verkauf":1930,"deutschland</w>":1931,"woher</w>":1932,"kapi":1933,"feu":1934,"seite</w>":1935,"kas</w>":1936,"kation</w>":1937,"fla":1938,"are</w>":1939,"tori":1940,"dial":1941,"mär":1942,"anwe":1943,"pau":1944,"pha":1945,"tivi":1946,"emp":1947,"europäische</w>":1948,"bakter":1949,"flä":1950,"betrachtet</w>":1951,"auen</w>":1952,"ost":1953,"zun":1954,"weniger</w>":1955,"beispiel</w>":1956,"tradition":1957,"sonder":1958,"premier</w>":1959,"gg":1960,"schafts":1961,"kany":1962,"ander</w>":1963,"gend</w>":1964,"la</w>":1965,"geschä":1966,"ys</w>":1967,"fahren</w>":1968,"arbeiten</w>":1969,"position</w>":1970,"techni":1971,"fuß":1972,"club</w>":1973,"herkul":1974,"bildet</w>":1975,"tieren</w>":1976,"stischen</w>":1977,"ate</w>":1978,"verschiedene</w>":1979,"immer</w>":1980,"woll":1981,"jahrzeh":1982,"ok":1983,"11</w>":1984,"bare</w>":1985,"wander":1986,"ära</w>":1987,"tiere</w>":1988,"japan</w>":1989,"einzel":1990,"niederländ":1991,"selbst</w>":1992,"hamp":1993,"gericht</w>":1994,"fran":1995,"sc":1996,"houst":1997,"schwer":1998,"ün":1999,"prob":2000,"80</w>":2001,"sicht</w>":2002,"wieder</w>":2003,"englisch</w>":2004,"pflanzen</w>":2005,"mitglied</w>":2006,"anten":2007,"orthodox":2008,"sion":2009,"osten</w>":2010,"stellung</w>":2011,"tre</w>":2012,"zieren</w>":2013,"nähe</w>":2014,"pole":2015,"get":2016,"treten</w>":2017,"lautet</w>":2018,"besie":2019,"ris":2020,"ek</w>":2021,"gri":2022,"spielt</w>":2023,"peri":2024,"island</w>":2025,"herkules</w>":2026,"türk":2027,"2008</w>":2028,"gericht":2029,"ahl</w>":2030,"2000</w>":2031,"mexiko</w>":2032,"wahl</w>":2033,"plo":2034,"england</w>":2035,"napole":2036,"exi":2037,"ther":2038,"volks":2039,"bibliothe":2040,"dr":2041,"dä":2042,"ams</w>":2043,"washington</w>":2044,"ev":2045,"errei":2046,"ball":2047,"erst</w>":2048,"mes</w>":2049,"top</w>":2050,"offiziel":2051,"ess</w>":2052,"fort":2053,"gä":2054,"2004</w>":2055,"mitte</w>":2056,"gemeinschaft</w>":2057,"chung</w>":2058,"katholische</w>":2059,"kaiser</w>":2060,"verwand":2061,"weit</w>":2062,"bau</w>":2063,"zeigt</w>":2064,"bung</w>":2065,"ment":2066,"test":2067,"bom":2068,"nove":2069,"tz</w>":2070,"zentrum</w>":2071,"gewonnen</w>":2072,"ringen</w>":2073,"stil</w>":2074,"erhö":2075,"stimmung</w>":2076,"hinzu":2077,"187":2078,"scha":2079,"nds</w>":2080,"ami":2081,"forsch":2082,"kreu":2083,"lation</w>":2084,"hne</w>":2085,"november</w>":2086,"deckt</w>":2087,"ha</w>":2088,"portugie":2089,"leute</w>":2090,"erklä":2091,"zurück</w>":2092,"führung</w>":2093,"gungen</w>":2094,"militär":2095,"wettbewerb</w>":2096,"werk</w>":2097,"tember</w>":2098,"gefunden</w>":2099,"produktion</w>":2100,"san</w>":2101,"muse":2102,"informationen</w>":2103,"schwei":2104,"veröffentlich":2105,"veran":2106,"jing</w>":2107,"verbu":2108,"bron":2109,"gott</w>":2110,"ira":2111,"glauben</w>":2112,"muss</w>":2113,"bibliothek</w>":2114,"preis</w>":2115,"fiziert</w>":2116,"tur</w>":2117,"papi":2118,"ensi":2119,"yn":2120,"wessen</w>":2121,"hen":2122,"mars":2123,"teilt</w>":2124,"definiert</w>":2125,"$</w>":2126,"od</w>":2127,"jekt</w>":2128,"atlantic</w>":2129,"phili":2130,"afrikan":2131,"kün":2132,"ing":2133,"chopin</w>":2134,"stim":2135,"öffentliche</w>":2136,"college</w>":2137,"enen</w>":2138,"stisch</w>":2139,"far":2140,"fel":2141,"rische</w>":2142,"temperat":2143,"jugend":2144,"etsgietsgietsgietsgietsgietsgietsgietsgi":2145,"delhi</w>":2146,"dire":2147,"gal</w>":2148,"bess":2149,"houston</w>":2150,"doll":2151,"osman":2152,"est":2153,"flughafen</w>":2154,"bahn</w>":2155,"september</w>":2156,"worauf</w>":2157,"schwe":2158,"einzige</w>":2159,"stark</w>":2160,"alten</w>":2161,"eter":2162,"gesam":2163,"sub":2164,"verwenden</w>":2165,"fang</w>":2166,"griechen":2167,"ti</w>":2168,"nei":2169,"ymp":2170,"use</w>":2171,"form":2172,"rolle</w>":2173,"gesellschaft</w>":2174,"kontrolle</w>":2175,"graph":2176,"daten</w>":2177,"madon":2178,"sout":2179,"william</w>":2180,"nehm":2181,"mel":2182,"),</w>":2183,"kultur":2184,"ue</w>":2185,"herrschaft</w>":2186,"verstä":2187,"gespielt</w>":2188,"ler":2189,"schriften</w>":2190,"ländern</w>":2191,"cs</w>":2192,"ling</w>":2193,"ihrem</w>":2194,"giegiegiegie":2195,"bc</w>":2196,"gebäude</w>":2197,"smus</w>":2198,"rat</w>":2199,"win</w>":2200,"go</w>":2201,"southamp":2202,"dete</w>":2203,"durchschni":2204,"dollar</w>":2205,"gehör":2206,"russ":2207,"deutsche</w>":2208,"erungen</w>":2209,"genen</w>":2210,"austr":2211,"ford</w>":2212,"nutzen</w>":2213,"vic":2214,"jet":2215,"sowjet":2216,"elektri":2217,"gleich":2218,"verbo":2219,"arch":2220,"ihr</w>":2221,"marshal":2222,"beyon":2223,"heits":2224,"punkt</w>":2225,"erhielt</w>":2226,"tar":2227,"gungs":2228,"ton":2229,"wachst":2230,"ssystem</w>":2231,"dent":2232,"stei":2233,"weil</w>":2234,"stab":2235,"22</w>":2236,"bia</w>":2237,"zü":2238,"reiben</w>":2239,"steu":2240,"poly":2241,"auß":2242,"kraft</w>":2243,"sitz":2244,"nete</w>":2245,"zähl":2246,"quadrat":2247,"!</w>":2248,"römischen</w>":2249,"erei</w>":2250,"wa</w>":2251,"xis</w>":2252,"ursprünglich</w>":2253,"swer":2254,"briten</w>":2255,"größten</w>":2256,"wasser</w>":2257,"tter</w>":2258,"theorie</w>":2259,"unterzeichnet</w>":2260,"elli":2261,"verbunden</w>":2262,"französischen</w>":2263,"worden</w>":2264,"farbe</w>":2265,"wegen</w>":2266,"wn</w>":2267,"philosophie</w>":2268,"ply":2269,"sierte</w>":2270,"pti":2271,"version</w>":2272,"mouth</w>":2273,"oklahoma</w>":2274,"anzu":2275,"erweise</w>":2276,"tuc":2277,"roy":2278,"gh</w>":2279,"oli":2280,"spei":2281,"institut</w>":2282,"zwe":2283,"fack":2284,"stü":2285,"dame</w>":2286,"schwarzen":2287,"verwendung</w>":2288,"kultur</w>":2289,"alas":2290,"stehen</w>":2291,"zierte</w>":2292,"cro":2293,"notre</w>":2294,"verfassung</w>":2295,"pflich":2296,"benannt</w>":2297,"charles</w>":2298,"schwarzeneg":2299,"bis":2300,"entfer":2301,"befand</w>":2302,"hin</w>":2303,"spitz":2304,"nisse</w>":2305,"coun":2306,"anz</w>":2307,"märz</w>":2308,"bir":2309,"american</w>":2310,"schl":2311,"lor":2312,"asp":2313,"systeme</w>":2314,"azi":2315,"gebildet</w>":2316,"ön":2317,"ia</w>":2318,"nu":2319,"schließlich</w>":2320,"hayek</w>":2321,"ov":2322,"21</w>":2323,"kanye</w>":2324,"kinder</w>":2325,"wind":2326,"ston</w>":2327,"quelle</w>":2328,"zeiten</w>":2329,"26</w>":2330,"kil":2331,"mrd</w>":2332,"mehrheit</w>":2333,"sai":2334,"gabe</w>":2335,"eingeführt</w>":2336,"zogen</w>":2337,"würden</w>":2338,"10":2339,"16":2340,"kamen</w>":2341,"straße</w>":2342,"kenswer":2343,"bemerkenswer":2344,"typ":2345,"international</w>":2346,"frauen</w>":2347,"teri":2348,"fraktion</w>":2349,"kirchen</w>":2350,"benutzte</w>":2351,"lungen</w>":2352,"moderne</w>":2353,"sign":2354,"enti":2355,"fest":2356,"ans</w>":2357,"dungs":2358,"sul":2359,"gust</w>":2360,"august</w>":2361,"500</w>":2362,"kte</w>":2363,"ba</w>":2364,"zweite</w>":2365,"zahl":2366,"royal</w>":2367,"rechte</w>":2368,"setzen</w>":2369,"ena</w>":2370,"stes</w>":2371,"ght</w>":2372,"ckt</w>":2373,"mathe":2374,"mathema":2375,"ga</w>":2376,"gsten</w>":2377,"street</w>":2378,"ah</w>":2379,"rest":2380,"mond</w>":2381,"bezeichnet</w>":2382,"plymouth</w>":2383,"erhalten</w>":2384,"seinem</w>":2385,"teili":2386,"gtes</w>":2387,"vereinigtes</w>":2388,"fakt":2389,"beam":2390,"frau</w>":2391,"digi":2392,"mann</w>":2393,"fir":2394,"enden</w>":2395,"________________________________________________________________":2396,"frühe":2397,"pak":2398,"tritt</w>":2399,"spä":2400,"teilen</w>":2401,"handels":2402,"olymp":2403,"tage</w>":2404,"burg</w>":2405,"spielen</w>":2406,"sse":2407,"sches</w>":2408,"kämp":2409,"paris</w>":2410,"dy":2411,"24</w>":2412,"mehrere</w>":2413,"cd</w>":2414,"dna</w>":2415,"anfang</w>":2416,"aktion</w>":2417,"provin":2418,"cup</w>":2419,"gl":2420,"chlich</w>":2421,"sionen</w>":2422,"zeitraum</w>":2423,"and</w>":2424,"hü":2425,"zog</w>":2426,"norfol":2427,"paul</w>":2428,"erfolg</w>":2429,"sym":2430,"stein</w>":2431,"einfa":2432,"kris":2433,"bezieht</w>":2434,"datum</w>":2435,"spieler</w>":2436,"geld</w>":2437,"beli":2438,"manch":2439,"sierung</w>":2440,"uver":2441,"architektur</w>":2442,"oper":2443,"deze":2444,"kommis":2445,"lands</w>":2446,"aktionen</w>":2447,"185":2448,"183":2449,"schü":2450,"eter</w>":2451,"denen</w>":2452,"code</w>":2453,"opp":2454,"ausländ":2455,"markt</w>":2456,"bakterien</w>":2457,"uran</w>":2458,"religiösen</w>":2459,"george</w>":2460,"ana</w>":2461,"konnte</w>":2462,"hein":2463,"sent":2464,"kardin":2465,"universitäten</w>":2466,"wirtschaft":2467,"hauptstadt</w>":2468,"dauert</w>":2469,"heiligen</w>":2470,"berg</w>":2471,"nahm</w>":2472,"zuerst</w>":2473,"elte</w>":2474,"2015</w>":2475,"wohner</w>":2476,"ham</w>":2477,"latein":2478,"bundes":2479,"jan":2480,"versamm":2481,"mikro":2482,"beim</w>":2483,"abkommen</w>":2484,"irland</w>":2485,"ergeb":2486,"ürz":2487,"2005</w>":2488,"23":2489,"vö":2490,"zweiter</w>":2491,"trat</w>":2492,"cks</w>":2493,"nes</w>":2494,"äre</w>":2495,"sal":2496,"gewähl":2497,"sechs</w>":2498,"apri":2499,"april</w>":2500,"außer</w>":2501,"schmer":2502,"joh":2503,"hir":2504,"niedri":2505,"mittel</w>":2506,"..</w>":2507,"gei":2508,"glo":2509,"staff":2510,"ums</w>":2511,"stadi":2512,"haltung</w>":2513,"öst":2514,"norfolk</w>":2515,"mark</w>":2516,"einfluss</w>":2517,"hren</w>":2518,"äl":2519,"gefügt</w>":2520,"gkeiten</w>":2521,"urt</w>":2522,"gesagt</w>":2523,"gehö":2524,"fal":2525,"begonnen</w>":2526,"meilen</w>":2527,"cham":2528,"chan":2529,"eisenho":2530,"kolon":2531,"formen</w>":2532,"gefä":2533,"stör":2534,"pap":2535,"napoleon</w>":2536,"praxis</w>":2537,"hung</w>":2538,"zivi":2539,"kleine</w>":2540,"mosai":2541,"tuval":2542,"unterschied":2543,"dezember</w>":2544,"sport":2545,"vater</w>":2546,"dan":2547,"bedeut":2548,"schlu":2549,"zol":2550,"palä":2551,"hinzugefügt</w>":2552,"annes</w>":2553,").</w>":2554,"yan":2555,"can":2556,"klei":2557,"ner":2558,"nanjing</w>":2559,"fiel":2560,"krank":2561,"cin":2562,"gers</w>":2563,"defini":2564,"general</w>":2565,"air</w>":2566,"inseln</w>":2567,"kathe":2568,"flie":2569,"tause":2570,"line</w>":2571,"zustimmung</w>":2572,"bal":2573,"frühe</w>":2574,"griechischen</w>":2575,"é</w>":2576,"russische</w>":2577,"ji":2578,"radi":2579,"bedeutung</w>":2580,"jü":2581,"tucson</w>":2582,"benutzt</w>":2583,"christen</w>":2584,"tehe":2585,"whitehe":2586,"lieren</w>":2587,"ehem":2588,"kathedr":2589,"nden":2590,"way</w>":2591,"tier</w>":2592,"verrin":2593,"folgt</w>":2594,"zeichnungen</w>":2595,"gilt</w>":2596,"stet</w>":2597,"verbindungen</w>":2598,"einsatz</w>":2599,"bezir":2600,"eigenschaften</w>":2601,"1992</w>":2602,"kandi":2603,"physi":2604,"pres":2605,"presby":2606,"tkräfte</w>":2607,"ais":2608,"reiches</w>":2609,"obwohl</w>":2610,"fast</w>":2611,"testen</w>":2612,"schrift</w>":2613,"küste</w>":2614,"servi":2615,"began":2616,"föder":2617,"var":2618,"kap":2619,"rang</w>":2620,"vis":2621,"kli":2622,"rom</w>":2623,"70</w>":2624,"gemei":2625,"juden</w>":2626,"rechts":2627,"wör":2628,"tischer</w>":2629,"basis</w>":2630,"darwin</w>":2631,"vir":2632,"spanien</w>":2633,"jag":2634,"minder":2635,"anta</w>":2636,"ging</w>":2637,"kehr</w>":2638,"station</w>":2639,"behaup":2640,"verhi":2641,"öster":2642,"12":2643,"tele":2644,"lok":2645,"chern</w>":2646,"reibt</w>":2647,"tak":2648,"wood</w>":2649,"neu</w>":2650,"einzigen</w>":2651,"wollte</w>":2652,"griechisch</w>":2653,"world</w>":2654,"seh":2655,"konzept</w>":2656,"southampton</w>":2657,"mai</w>":2658,"westliche</w>":2659,"gleich</w>":2660,"sha":2661,"polizei</w>":2662,"ina</w>":2663,"sup":2664,"technik</w>":2665,"kommission</w>":2666,"soll":2667,"madonna</w>":2668,"att":2669,"ibn</w>":2670,"tiker</w>":2671,"geo":2672,"beginn</w>":2673,"juli</w>":2674,"verkauft</w>":2675,"ward</w>":2676,"wovon</w>":2677,"satz":2678,"richt</w>":2679,"gerichtet</w>":2680,"besuchen</w>":2681,"energie":2682,"trennt</w>":2683,"kenn":2684,"är":2685,"kauf":2686,"liert</w>":2687,"sieben</w>":2688,"johannes</w>":2689,"gelehr":2690,"israel</w>":2691,"produkte</w>":2692,"popu":2693,"tier":2694,"om</w>":2695,"ob</w>":2696,"flo":2697,"tibe":2698,"geschlagen</w>":2699,"redu":2700,"fri":2701,"worben</w>":2702,"soll</w>":2703,"zahl</w>":2704,"befeh":2705,"aner":2706,"presbyteri":2707,"2003</w>":2708,"material</w>":2709,"streitkräfte</w>":2710,"trei":2711,"dafür</w>":2712,"sprochen</w>":2713,"daß</w>":2714,"prü":2715,"reihe</w>":2716,"mar</w>":2717,"künst":2718,"tigt</w>":2719,"tod</w>":2720,"verloren</w>":2721,"dert</w>":2722,"entfernt</w>":2723,"schnell</w>":2724,"anten</w>":2725,"thei":2726,"portugal</w>":2727,"haven</w>":2728,"ser</w>":2729,"dre":2730,"teilung</w>":2731,"zyp":2732,"kompon":2733,"maß":2734,"spielte</w>":2735,"amts":2736,"schluss</w>":2737,"nep":2738,"antenne</w>":2739,"womit</w>":2740,"ette</w>":2741,"insek":2742,"user</w>":2743,"griechenland</w>":2744,"nicht":2745,"km</w>":2746,"lab":2747,"chtete</w>":2748,"angriff</w>":2749,"erium</w>":2750,"spartei</w>":2751,"preußen</w>":2752,"hte</w>":2753,"namibia</w>":2754,"natür":2755,"statt":2756,"soft":2757,"wahrschein":2758,"richtung</w>":2759,"blo":2760,"osexu":2761,"somali":2762,"comi":2763,"römisch</w>":2764,"erde</w>":2765,"ator</w>":2766,"haus":2767,"erforder":2768,"1950</w>":2769,"entwickeln</w>":2770,"misch":2771,"qui":2772,"großer</w>":2773,"untersuchung</w>":2774,"ards</w>":2775,"religiö":2776,"studen":2777,"schrift":2778,"times</w>":2779,"mme</w>":2780,"kron":2781,"stellte</w>":2782,"waffen</w>":2783,"gemeinsam":2784,"punk":2785,"regel":2786,"öffnet</w>":2787,"ales</w>":2788,"ater":2789,"zweck</w>":2790,"iii</w>":2791,"russland</w>":2792,"setzte</w>":2793,"alisten</w>":2794,"not":2795,"handel</w>":2796,"49</w>":2797,"krise</w>":2798,"netz":2799,"beteili":2800,"zuneh":2801,"kup":2802,"tan</w>":2803,"finanziel":2804,"hälfte</w>":2805,"ohne</w>":2806,"rangi":2807,"sst</w>":2808,"febru":2809,"atom":2810,"aku":2811,"angri":2812,"inte":2813,"eller</w>":2814,"industri":2815,"brasi":2816,"ologische</w>":2817,"kommand":2818,"reiche</w>":2819,"jam":2820,"show</w>":2821,"olina</w>":2822,"gewinnen</w>":2823,"wider":2824,"klein":2825,"sicht":2826,"liches</w>":2827,"wirkungen</w>":2828,"nationale</w>":2829,"fläche</w>":2830,"sommer":2831,"fort</w>":2832,"behand":2833,"lang</w>":2834,"queen</w>":2835,"folge</w>":2836,"beziehungen</w>":2837,"afrika</w>":2838,"manchmal</w>":2839,"besonder":2840,"ränk":2841,"13":2842,"14":2843,"mann":2844,"satelli":2845,"februar</w>":2846,"ebene</w>":2847,"menschen":2848,"tab":2849,"tha":2850,"personen</w>":2851,"stein":2852,"treffen</w>":2853,"männ":2854,"parla":2855,"sund":2856,"kinder":2857,"berühmte</w>":2858,"näch":2859,"wasserstoff</w>":2860,"ßi":2861,"camp":2862,"eisenhower</w>":2863,"besteht</w>":2864,"internationale</w>":2865,"proble":2866,"einheit</w>":2867,"zh":2868,"region":2869,"va</w>":2870,"ath":2871,"jetzt</w>":2872,"jugendliche</w>":2873,"verhindern</w>":2874,"gad":2875,"geschwi":2876,"islamische</w>":2877,"baum":2878,"gla":2879,"schweiz</w>":2880,"run":2881,"methode</w>":2882,"etwa</w>":2883,"unterstützt</w>":2884,"ows</w>":2885,"north":2886,"hergestellt</w>":2887,"school</w>":2888,"griechische</w>":2889,"hilfe</w>":2890,"milliar":2891,"fackel</w>":2892,"ordnung</w>":2893,"erfolg":2894,"wichtiger</w>":2895,"innerhalb</w>":2896,"konstan":2897,"bevölkerungs":2898,"ala</w>":2899,"bedro":2900,"fizierung</w>":2901,"bilden</w>":2902,"nationen</w>":2903,"wachsen":2904,"erwachsen":2905,"dinge</w>":2906,"tuvalu</w>":2907,"national</w>":2908,"liter":2909,"festi":2910,"konzent":2911,"eff":2912,"ehr":2913,"ehemali":2914,"öffentlichen</w>":2915,"richter</w>":2916,"kilom":2917,"comput":2918,"ldschildschildschildschildschildschildschildschi":2919,"anzahl</w>":2920,"belie":2921,"durchschnitt":2922,"forschung</w>":2923,"bank</w>":2924,"stelle</w>":2925,"getragen</w>":2926,"gene":2927,"zeitalter</w>":2928,"soziale</w>":2929,"schaff":2930,"ganz":2931,"funktion":2932,"ihn</w>":2933,"teste</w>":2934,"aktivi":2935,"programm</w>":2936,"kale":2937,"machen</w>":2938,"orien</w>":2939,"letzten</w>":2940,"örd":2941,"erreicht</w>":2942,"cel":2943,"darauf</w>":2944,"männer</w>":2945,"nom":2946,"ure</w>":2947,"platz</w>":2948,"verursacht</w>":2949,"woche</w>":2950,"schüler</w>":2951,"klassische</w>":2952,"menschlichen</w>":2953,"entum</w>":2954,"gesetze</w>":2955,"davon</w>":2956,"landes</w>":2957,"beo":2958,"beoba":2959,"here</w>":2960,"popper</w>":2961,"stammt</w>":2962,"northwest":2963,"standen</w>":2964,"gadd":2965,"katal":2966,"holz</w>":2967,"ih":2968,"könnten</w>":2969,"benö":2970,"fallen</w>":2971,"einzu":2972,"fußball":2973,"bin":2974,"j</w>":2975,"ode</w>":2976,"blu":2977,"mol":2978,"sitz</w>":2979,"fernseh":2980,"vi</w>":2981,"vidu":2982,"dern</w>":2983,"ovas</w>":2984,"detro":2985,"hängt</w>":2986,"mon</w>":2987,"1920</w>":2988,"leg":2989,"aktu":2990,"ak</w>":2991,"verpflich":2992,"beeinfluss":2993,"beeinflusst</w>":2994,"studie</w>":2995,"kürz":2996,"ession</w>":2997,"trop":2998,"du</w>":2999,"400</w>":3000,"gern</w>":3001,"schä":3002,"berg":3003,"agi":3004,"verfassungs":3005,"apple</w>":3006,"audi":3007,"technologie</w>":3008,"dichte</w>":3009,"osmanischen</w>":3010,"milliarden</w>":3011,"türkei</w>":3012,"beyonc":3013,"christliche</w>":3014,"ssee</w>":3015,"aufzeichnungen</w>":3016,"75</w>":3017,"verkehr":3018,"lied</w>":3019,"befinden</w>":3020,"blei":3021,"software</w>":3022,"kin":3023,"individu":3024,"kriegs":3025,"ors</w>":3026,"stimmen</w>":3027,"zustand</w>":3028,"kti":3029,"james</w>":3030,"dann</w>":3031,"grundle":3032,"erschi":3033,"elektr":3034,"kanada</w>":3035,"liby":3036,"begannen</w>":3037,"sah</w>":3038,"jekte</w>":3039,"liber":3040,"werke</w>":3041,"erworben</w>":3042,"uch":3043,"nennen</w>":3044,"sz":3045,"jeh":3046,"jehovas</w>":3047,".............................................................................................................................................................................................................................................................</w>":3048,"text</w>":3049,"einander</w>":3050,"27</w>":3051,"schließen</w>":3052,"bieten</w>":3053,"einwander":3054,"agent":3055,"ham":3056,"los</w>":3057,"uar</w>":3058,"januar</w>":3059,"ndensat":3060,"deutschen</w>":3061,"argu":3062,"politik</w>":3063,"änderungen</w>":3064,"geschwindi":3065,"verlassen</w>":3066,"sätz":3067,"französisch</w>":3068,"schaffen</w>":3069,"bapti":3070,"tenne":3071,"gesund":3072,"studenten</w>":3073,"setzung</w>":3074,"fische</w>":3075,"computer</w>":3076,"ernen":3077,"ipo":3078,"barkeit</w>":3079,"ku</w>":3080,"befrei":3081,"samo":3082,"migra":3083,"schwarzenegger</w>":3084,"österreich</w>":3085,"westen</w>":3086,"gehört</w>":3087,"kehrsverkehrsverkehrsverkehrsverkehrsverkehrsverkehrsverkehrsver":3088,"korea</w>":3089,"polen</w>":3090,"ereignis</w>":3091,"kunst</w>":3092,"strafe</w>":3093,"sien</w>":3094,"gewählt</w>":3095,"tober</w>":3096,"oktober</w>":3097,"nörd":3098,"bronx</w>":3099,"krieges</w>":3100,"yl":3101,"format</w>":3102,"kodi":3103,"feyn":3104,"eingesetzt</w>":3105,"finan":3106,"wirkt</w>":3107,"verständ":3108,"veranstal":3109,"versuchte</w>":3110,"staffel</w>":3111,"schütz":3112,"enci":3113,"teten</w>":3114,"kondensat":3115,"ihnen</w>":3116,"verschiedenen</w>":3117,"tat</w>":3118,"seatt":3119,"strate":3120,"tin</w>":3121,"kriegs</w>":3122,"täts":3123,"dia</w>":3124,"gor":3125,"kolonie</w>":3126,"ngste</w>":3127,"italien</w>":3128,"abstamm":3129,"28</w>":3130,"glaubt</w>":3131,"bten</w>":3132,"gaddaf":3133,"schiffe</w>":3134,"fen":3135,"it</w>":3136,"usa":3137,"regu":3138,"enthalten</w>":3139,"sender</w>":3140,"jüd":3141,"gehen</w>":3142,"regierte</w>":3143,"selbst":3144,"anal":3145,"präsen":3146,"anisch</w>":3147,"mmt</w>":3148,"ete</w>":3149,"tru":3150,"indische</w>":3151,"yale</w>":3152,"zer</w>":3153,"dopp":3154,"brechen</w>":3155,"faktor</w>":3156,"weiß</w>":3157,"fragen</w>":3158,"entdeckt</w>":3159,"..............................................................................................................................................................................................................................................................</w>":3160,"wäl":3161,"läu":3162,"des":3163,"normal":3164,"thom":3165,"ting</w>":3166,"karne":3167,"ai</w>":3168,"sequ":3169,"ade</w>":3170,"schau":3171,"irgend":3172,"1980</w>":3173,"schle":3174,"erlaubt</w>":3175,"ett</w>":3176,"abge":3177,"halt</w>":3178,"windows</w>":3179,"eu":3180,"größe</w>":3181,"alli":3182,"bank":3183,"richtet</w>":3184,"mechan":3185,"onischen</w>":3186,"gewicht</w>":3187,"rate</w>":3188,"falt</w>":3189,"nega":3190,"getrennt</w>":3191,"gezeigt</w>":3192,"muslime</w>":3193,"samur":3194,"monat</w>":3195,"ttes</w>":3196,"monate</w>":3197,"wesent":3198,"gebiete</w>":3199,"cag":3200,"cat":3201,"1991</w>":3202,"bela":3203,"gewann</w>":3204,"gö":3205,"unterstützung</w>":3206,"berühmten</w>":3207,"gehören</w>":3208,"verbess":3209,"dialekt</w>":3210,"jung":3211,"untersucht</w>":3212,"gas</w>":3213,"enn":3214,"eni":3215,"force</w>":3216,"ersetzt</w>":3217,"höchste</w>":3218,"starb</w>":3219,"erung":3220,"terri":3221,"pa</w>":3222,"gegenüber</w>":3223,"soci":3224,"soli":3225,"premier":3226,"mein":3227,"roman":3228,"will</w>":3229,"mittelalter":3230,"slaw":3231,"digit":3232,"estland</w>":3233,"cking":3234,"fanden</w>":3235,"sych":3236,"psych":3237,"mul":3238,"bbc</w>":3239,"phon":3240,"getö":3241,"ermor":3242,"spiri":3243,"häfen</w>":3244,"ano</w>":3245,"santa</w>":3246,"mmet":3247,"russen</w>":3248,"mitteln</w>":3249,"baren</w>":3250,"internet</w>":3251,"sowjetunion</w>":3252,"acht</w>":3253,"part":3254,"mm</w>":3255,"amerikaner</w>":3256,"tennessee</w>":3257,"ach</w>":3258,"papier</w>":3259,"erle":3260,"verkauf</w>":3261,"tsche":3262,"sung</w>":3263,"bahn":3264,"staatliche</w>":3265,"by</w>":3266,"besitz":3267,"bericht</w>":3268,"elemente</w>":3269,"wat":3270,"ade":3271,"189":3272,"etsgebi":3273,"unterschei":3274,"jahrzehnt</w>":3275,"längste</w>":3276,"sport</w>":3277,"vertre":3278,"1000</w>":3279,"nation</w>":3280,"burke</w>":3281,"sozialen</w>":3282,"vögel</w>":3283,"säu":3284,"außerhalb</w>":3285,"prozess</w>":3286,"victori":3287,"gouver":3288,"gouverne":3289,"mentierte</w>":3290,"todes":3291,"reserv":3292,"zusätz":3293,"lang":3294,"1998</w>":3295,"territori":3296,"dienst":3297,"erlan":3298,"straßen":3299,"ibm</w>":3300,"abstammung</w>":3301,"offensi":3302,"körpers</w>":3303,"tari":3304,"half</w>":3305,"uten</w>":3306,"periode</w>":3307,"einwohner</w>":3308,"guin":3309,"doku":3310,"whitehead</w>":3311,"dient</w>":3312,"inve":3313,"ssung</w>":3314,"valenci":3315,"wart</w>":3316,"mand</w>":3317,"rk":3318,"reichen</w>":3319,"val</w>":3320,"katholischen</w>":3321,"mod":3322,"super":3323,"auswirkungen</w>":3324,"gestar":3325,"poration</w>":3326,"glob":3327,"projekt</w>":3328,"asso":3329,"ks</w>":3330,"feynman</w>":3331,"rock</w>":3332,"lose</w>":3333,"north</w>":3334,"rick</w>":3335,"dienstleist":3336,"linge</w>":3337,"hlt</w>":3338,"kongre":3339,"stan</w>":3340,"ani":3341,"prot":3342,"schritte</w>":3343,"erklär":3344,"prop":3345,"ernannt</w>":3346,"seattle</w>":3347,"biet":3348,"mandolin":3349,"gehol":3350,"geholfen</w>":3351,"wieri":3352,"schwieri":3353,"itali":3354,"getötet</w>":3355,"dy</w>":3356,"48</w>":3357,"meister</w>":3358,"il</w>":3359,"skri":3360,"risi":3361,"stadion</w>":3362,"abschie":3363,"sicherheit</w>":3364,"ima":3365,"ihm</w>":3366,"ili":3367,"akade":3368,"brie":3369,"charakter":3370,"verwaltung</w>":3371,"unterstützte</w>":3372,"thomas</w>":3373,"wissenschaftler</w>":3374,"meter</w>":3375,"elles</w>":3376,"stunden</w>":3377,"carolina</w>":3378,"phase</w>":3379,"steh":3380,"systems</w>":3381,"modell</w>":3382,"sar":3383,"stens</w>":3384,"mark":3385,"israel":3386,"hor":3387,"kerry</w>":3388,"kredi":3389,"vielfalt</w>":3390,"zig</w>":3391,"bern</w>":3392,"dou</w>":3393,"beidou</w>":3394,"jagd</w>":3395,"ted</w>":3396,"früheste</w>":3397,"minist":3398,"leiter</w>":3399,"termin":3400,"band</w>":3401,"ego</w>":3402,"wachstum</w>":3403,"geschle":3404,"kein</w>":3405,"künstler</w>":3406,"intere":3407,"play":3408,"tradition</w>":3409,"häuser</w>":3410,"sowje":3411,"seines</w>":3412,"milie</w>":3413,"gut</w>":3414,"normalerweise</w>":3415,"tisiert</w>":3416,"rup":3417,"1960</w>":3418,"taten</w>":3419,"familie</w>":3420,"somal":3421,"folgte</w>":3422,"plan</w>":3423,"museum</w>":3424,"sön":3425,"foot":3426,"winter</w>":3427,"nehmer</w>":3428,"legi":3429,"stif":3430,"lässi":3431,"erster</w>":3432,"urn":3433,"&</w>":3434,"diego</w>":3435,"früh":3436,"1970</w>":3437,"sony</w>":3438,"palast</w>":3439,"tikel</w>":3440,"artikel</w>":3441,"persön":3442,"höchsten</w>":3443,"fti":3444,"süden</w>":3445,"egel":3446,"mutter</w>":3447,"norden</w>":3448,"vene":3449,"gehe":3450,"nda</w>":3451,"utr":3452,"raten</w>":3453,"konstru":3454,"richmond</w>":3455,"chen":3456,"storben</w>":3457,"nimmt</w>":3458,"nigeri":3459,"gebrau":3460,"ley</w>":3461,"organi":3462,"wäre</w>":3463,"bip</w>":3464,"massen":3465,"epi":3466,"kan</w>":3467,"zählung</w>":3468,"trag</w>":3469,"identität</w>":3470,"aufgrund</w>":3471,"häufig</w>":3472,"enthält</w>":3473,"tungen</w>":3474,"anstieg</w>":3475,"tter":3476,"län":3477,"entschie":3478,"guinea</w>":3479,"präsidenten</w>":3480,"cy":3481,"ong</w>":3482,"sance</w>":3483,"autor</w>":3484,"schlü":3485,"vermei":3486,"zeigen</w>":3487,"metro":3488,"osti":3489,"probleme</w>":3490,"ähnlich</w>":3491,"kore":3492,"compan":3493,"company</w>":3494,"bell</w>":3495,"bour":3496,"bende</w>":3497,"service</w>":3498,"wir</w>":3499,"methoden</w>":3500,"leitet</w>":3501,"heit":3502,"que</w>":3503,"matische</w>":3504,"verkehr</w>":3505,"richti":3506,"gert</w>":3507,"light</w>":3508,"renn":3509,"byu</w>":3510,"akter</w>":3511,"nar":3512,"militär</w>":3513,"cal":3514,"ursache</w>":3515,"produziert</w>":3516,"gesprochen</w>":3517,"gold":3518,"maßnahmen</w>":3519,"wirtschafts":3520,"cre":3521,"fung</w>":3522,"liste</w>":3523,"intel":3524,"high</w>":3525,"gottes</w>":3526,"zeigte</w>":3527,"konföder":3528,"paar</w>":3529,"fünf":3530,"christlich</w>":3531,"brasili":3532,"rechts</w>":3533,"aktive</w>":3534,"glaubte</w>":3535,"wichtige</w>":3536,"üste</w>":3537,"derzeit</w>":3538,"rela":3539,"herrscher</w>":3540,"int</w>":3541,"gründung</w>":3542,"journ":3543,"erweiter":3544,"1986</w>":3545,"ndien</w>":3546,"ssour":3547,"besiegt</w>":3548,"44</w>":3549,"erneu":3550,"bla":3551,"krei":3552,"insekten</w>":3553,"omie</w>":3554,"versor":3555,"darüber</w>":3556,"für":3557,"erenden</w>":3558,"trans":3559,"klärung</w>":3560,"teams</w>":3561,"denken</w>":3562,"manha":3563,"täg":3564,"ehmi":3565,"lek":3566,"nutzt</w>":3567,"kontrol":3568,"genehmi":3569,"170":3570,"definition</w>":3571,"aufge":3572,"spannung</w>":3573,"tierten</w>":3574,"schaffung</w>":3575,"house</w>":3576,"heinri":3577,"heinrich</w>":3578,"menschliche</w>":3579,"afrikanische</w>":3580,"ever":3581,"stoffe</w>":3582,"evan":3583,"merk":3584,"freiheit</w>":3585,"grenzt</w>":3586,"georgien</w>":3587,"gegend</w>":3588,"aufgenommen</w>":3589,"asi":3590,"moni":3591,"wri":3592,"ami</w>":3593,"190":3594,"heißen</w>":3595,"stellungen</w>":3596,"alaska</w>":3597,"sieht</w>":3598,"bioti":3599,"nö":3600,"ase</w>":3601,"vereinten</w>":3602,"übertra":3603,"ote</w>":3604,"krone</w>":3605,"popul":3606,"kupfer</w>":3607,"temperaturen</w>":3608,"ox":3609,"hell":3610,"kommunikation</w>":3611,"\"-</w>":3612,"demon":3613,"maxi":3614,"quali":3615,"ganzen</w>":3616,"zypern</w>":3617,"islam</w>":3618,"ket":3619,"größere</w>":3620,"produkt</w>":3621,"verabschie":3622,"republikan":3623,"gori":3624,"tai":3625,"gerichtsho":3626,"betrieb</w>":3627,"präsident":3628,"lin</w>":3629,"betro":3630,"hlen":3631,"ließen</w>":3632,"biotika</w>":3633,"zurückzu":3634,"county</w>":3635,"gän":3636,"weg</w>":3637,"un</w>":3638,"wrest":3639,"zug":3640,"korrup":3641,"beruf</w>":3642,"hinter":3643,"alb":3644,"alte</w>":3645,"gefan":3646,"spanischen</w>":3647,"studium</w>":3648,"deutsch</w>":3649,"reichs</w>":3650,"quadratmeilen</w>":3651,"ed</w>":3652,"sklaven</w>":3653,"ndes</w>":3654,"worfen</w>":3655,"traditionelle</w>":3656,"chicag":3657,"jur":3658,"tungs":3659,"ty":3660,"populari":3661,"renais":3662,"internationalen</w>":3663,"geber</w>":3664,"süd</w>":3665,"regierungs":3666,"samurai</w>":3667,"priva":3668,"ui":3669,"leistung</w>":3670,"gewalt":3671,"pubs</w>":3672,"renaissance</w>":3673,"boston</w>":3674,"aven":3675,"verbrei":3676,"sätze</w>":3677,"abschni":3678,"errichtet</w>":3679,"grenze</w>":3680,"1988</w>":3681,"tat":3682,"blau</w>":3683,"ich</w>":3684,"imm":3685,"königin</w>":3686,"diesem</w>":3687,"innen":3688,"tol":3689,"wachse":3690,"usb</w>":3691,"tut":3692,"eins</w>":3693,"institution</w>":3694,"geladen</w>":3695,"elektrische</w>":3696,"1930</w>":3697,"video</w>":3698,"sam</w>":3699,"utrecht</w>":3700,"fähigkeit</w>":3701,"erie</w>":3702,"bild</w>":3703,"ag</w>":3704,"konnten</w>":3705,"terr":3706,"verfüg":3707,"belagerung</w>":3708,"anerkan":3709,"ckingham</w>":3710,"koh":3711,"hind":3712,"woraus</w>":3713,"champi":3714,"sei</w>":3715,"sthe":3716,"stin":3717,"nachbar":3718,"handels</w>":3719,"deta":3720,"sas</w>":3721,"manhatt":3722,"song</w>":3723,"pala":3724,"dieses</w>":3725,"allgemeine</w>":3726,"ef</w>":3727,"ums":3728,"ökon":3729,"deri":3730,"christentum</w>":3731,"status</w>":3732,"verändert</w>":3733,"ipod</w>":3734,"sied":3735,"bürgerkrieg</w>":3736,"verteidigung</w>":3737,"literat":3738,"demokratische</w>":3739,"uns</w>":3740,"heute</w>":3741,"bücher</w>":3742,"ächlich</w>":3743,"industrie</w>":3744,"23</w>":3745,"masch":3746,"buddhi":3747,"fälle</w>":3748,"wüste</w>":3749,"provinz</w>":3750,"33</w>":3751,"gal":3752,"durchgeführt</w>":3753,"frage</w>":3754,"rhy":3755,"römische</w>":3756,"national":3757,"glü":3758,"zunehmen</w>":3759,"2001</w>":3760,"frieden":3761,"chinesischen</w>":3762,"41</w>":3763,"studien</w>":3764,"gelegen":3765,"aufklärung</w>":3766,"zierung</w>":3767,"live</w>":3768,"ssel":3769,"programmen</w>":3770,"wehr":3771,"däne":3772,"karte</w>":3773,"town</w>":3774,"vergleich</w>":3775,"unabhängigkeit</w>":3776,"kommando</w>":3777,"1949</w>":3778,"boden</w>":3779,"verursachte</w>":3780,"pati":3781,"autobahn</w>":3782,"erzeu":3783,"betrie":3784,"charakter</w>":3785,"schwer</w>":3786,"lehren</w>":3787,"akzep":3788,"van</w>":3789,"northwestern</w>":3790,"sieren</w>":3791,"ausländische</w>":3792,"flugzeug</w>":3793,"medien</w>":3794,"tsächlich</w>":3795,"wachsen</w>":3796,"phia</w>":3797,"etsgebietsgebi":3798,"verfahren</w>":3799,"touri":3800,"schlug</w>":3801,"fm</w>":3802,"chicago</w>":3803,"befu":3804,"bürger</w>":3805,"orthodoxe</w>":3806,"omen</w>":3807,"detroit</w>":3808,"eingestu":3809,"ona</w>":3810,"angs":3811,"kommunika":3812,"beteiligt</w>":3813,"theore":3814,"forscher</w>":3815,"sses</w>":3816,"bietet</w>":3817,"1990</w>":3818,"ketz":3819,"struktur</w>":3820,"nordamerika</w>":3821,"emo":3822,"spo":3823,"kten</w>":3824,"bedin":3825,"strateg":3826,"zellen</w>":3827,"förder":3828,"kunst":3829,"staats":3830,"corporation</w>":3831,"start</w>":3832,"iran</w>":3833,"stenz</w>":3834,"leds</w>":3835,"lem</w>":3836,"meer":3837,"eigenen</w>":3838,"vorher":3839,"staates</w>":3840,"arbeitsp":3841,"dänemark</w>":3842,"rock":3843,"hauptsächlich</w>":3844,"cl":3845,"pil":3846,"usaf</w>":3847,"mannschaft</w>":3848,"ube</w>":3849,"portugiesische</w>":3850,"victoria</w>":3851,"motor":3852,"dunk":3853,"£</w>":3854,"ew</w>":3855,"schlä":3856,"neuer</w>":3857,"natur":3858,"proze":3859,"campus</w>":3860,"komple":3861,"sowohl</w>":3862,"wichtigste</w>":3863,"gestartet</w>":3864,"wert":3865,"kaiser":3866,"ville</w>":3867,"körper</w>":3868,"offiziell</w>":3869,"alex":3870,"zehn</w>":3871,"ostindien</w>":3872,"verwei":3873,"dauerte</w>":3874,"marshallin":3875,"baumwoll":3876,"dokument</w>":3877,"anderes</w>":3878,"abgel":3879,"compu":3880,"beginnt</w>":3881,"morph":3882,"meister":3883,"geboren</w>":3884,"ausgabe</w>":3885,"album</w>":3886,"institute</w>":3887,"geschwindigkeit</w>":3888,"französische</w>":3889,"generation</w>":3890,"cub":3891,"utz</w>":3892,"etsgietsgietsgietsgietsgietsgietsgietsgietsgietsgietsgietsgietsgietsgietsgietsgi":3893,"militärische</w>":3894,"briti":3895,"einzigar":3896,"höhe</w>":3897,"bi</w>":3898,"fft</w>":3899,"dynami":3900,"ey</w>":3901,"geht</w>":3902,"unterstützen</w>":3903,"herrsch":3904,"graphie</w>":3905,"expre":3906,"derab":3907,"verringerung</w>":3908,"fußball</w>":3909,"tadschi":3910,"verlust</w>":3911,"autori":3912,"träge</w>":3913,"englischen</w>":3914,"hrung</w>":3915,"rebel":3916,"box</w>":3917,"kateg":3918,"fru":3919,"musik":3920,"sklaver":3921,"sklaven":3922,"orida</w>":3923,"macin":3924,"macinto":3925,"neum":3926,"uset":3927,"usetts</w>":3928,"ves</w>":3929,"fizieren</w>":3930,"brenn":3931,"syn":3932,"yout":3933,"sichten</w>":3934,"ologischen</w>":3935,"uran":3936,"bor":3937,"dienstleistungen</w>":3938,"grün</w>":3939,"beschrieben</w>":3940,"syna":3941,"glet":3942,"politischen</w>":3943,"65</w>":3944,"normen</w>":3945,"elten</w>":3946,"macintosh</w>":3947,"hismus</w>":3948,"lungs":3949,"evolu":3950,"bell":3951,"gast":3952,"fund":3953,"orig":3954,"migration</w>":3955,"kleidung</w>":3956,"robert</w>":3957,"angenommen</w>":3958,"erober":3959,"identifiziert</w>":3960,"flugzeuge</w>":3961,"cker</w>":3962,"orden</w>":3963,"ct</w>":3964,"abe":3965,"häre</w>":3966,"schö":3967,"ach":3968,"schw":3969,"len":3970,"verletz":3971,"ministerium</w>":3972,"zentren</w>":3973,"mb":3974,"opi":3975,"ttern</w>":3976,"druck</w>":3977,"rückgang</w>":3978,"ast":3979,"ertes</w>":3980,"tons</w>":3981,"chusetts</w>":3982,"ssachusetts</w>":3983,"nders</w>":3984,"konfession</w>":3985,"nationalität</w>":3986,"kathedrale</w>":3987,"südliche</w>":3988,"bäu":3989,"53</w>":3990,"abschluss</w>":3991,"schlag</w>":3992,"rien</w>":3993,"buckingham</w>":3994,"lieb":3995,"ou":3996,"veröffentlichung</w>":3997,"beamte</w>":3998,"sollten</w>":3999,"volkspartei</w>":4000,"maschine</w>":4001,"bermu":4002,"olympischen</w>":4003,"pflanzen":4004,"feuer</w>":4005,"schiff</w>":4006,"marshallinseln</w>":4007,"ansicht</w>":4008,"freie</w>":4009,"preuß":4010,"wien</w>":4011,"feld</w>":4012,"ls</w>":4013,"kub":4014,"wahrscheinlich</w>":4015,"instru":4016,"angesehen</w>":4017,"athle":4018,"ressour":4019,"gerät</w>":4020,"stämme</w>":4021,"1978</w>":4022,"old</w>":4023,"buddha</w>":4024,"alles</w>":4025,"barcel":4026,"ndig</w>":4027,"gaddafi</w>":4028,"bruch</w>":4029,"griechen</w>":4030,"beigetragen</w>":4031,"gefähr":4032,"richtungen</w>":4033,"einrichtungen</w>":4034,"räu":4035,"erende</w>":4036,"heima":4037,"heimat</w>":4038,"37</w>":4039,"arabisch</w>":4040,"jäger</w>":4041,"try</w>":4042,"idee</w>":4043,"erzeugen</w>":4044,"beschä":4045,"anwendung</w>":4046,"vereinigte</w>":4047,"chter":4048,"überprü":4049,"jes":4050,"jek":4051,"müssen</w>":4052,"1993</w>":4053,"gebor":4054,"vereinbar":4055,"erschien</w>":4056,"theater</w>":4057,"avenue</w>":4058,"zeitung</w>":4059,"gehir":4060,"öst</w>":4061,"gelöst</w>":4062,"post</w>":4063,"genom</w>":4064,"kampf":4065,"tests</w>":4066,"vin</w>":4067,"gefühl</w>":4068,"prof":4069,"volkszählung</w>":4070,"field</w>":4071,"cker":4072,"unden</w>":4073,"mitglied":4074,"führen</w>":4075,".?</w>":4076,"farben</w>":4077,"gebung</w>":4078,"lebens</w>":4079,"mäßi":4080,"ergebnis</w>":4081,"stie</w>":4082,"abgesehen</w>":4083,"florida</w>":4084,"arbeiter</w>":4085,"skop":4086,"video":4087,"betroffen</w>":4088,"genden</w>":4089,"hand</w>":4090,"geplan":4091,"italien":4092,"thr":4093,"thi":4094,"sprech":4095,"komponenten</w>":4096,"aufbau</w>":4097,"premierminister</w>":4098,"offizielle</w>":4099,"cus</w>":4100,"twi":4101,"post":4102,"rhyth":4103,"irische</w>":4104,"bekann":4105,"stadt":4106,"bezirk</w>":4107,"kansas</w>":4108,"russischen</w>":4109,"ursprüngliche</w>":4110,"1945</w>":4111,"tb</w>":4112,"erlaubte</w>":4113,"alistische</w>":4114,"zone</w>":4115,"ziele</w>":4116,"agentur</w>":4117,"sklaverei</w>":4118,"arz":4119,"kos":4120,"linien</w>":4121,"fess":4122,"zwan":4123,"tito</w>":4124,"molek":4125,"antibiotika</w>":4126,"gggg":4127,"bildete</w>":4128,"osen</w>":4129,"han":4130,"ationen</w>":4131,"religiöse</w>":4132,"sau":4133,"slo":4134,"venezol":4135,"°</w>":4136,"delphia</w>":4137,"ladelphia</w>":4138,"änderung</w>":4139,"swa":4140,"1974</w>":4141,"youtube</w>":4142,"wesen</w>":4143,"hyderab":4144,"konzentra":4145,"grundlage</w>":4146,"geg":4147,"els</w>":4148,"bestä":4149,"lokalen</w>":4150,"vermeiden</w>":4151,"kohlen":4152,"raum</w>":4153,"mieren</w>":4154,"neumann</w>":4155,"aspekt</w>":4156,"maur":4157,"gebieten</w>":4158,"utras</w>":4159,"iso</w>":4160,"700</w>":4161,"football</w>":4162,"gerte</w>":4163,"ral":4164,"beyoncé</w>":4165,"ik</w>":4166,"immun":4167,"übergan":4168,"gouverneur</w>":4169,"human":4170,"liberi":4171,"lierte</w>":4172,"hayek":4173,"kranken":4174,"kopf</w>":4175,"batter":4176,"hingerichtet</w>":4177,"thema</w>":4178,"viertel</w>":4179,"ssion</w>":4180,"eingestuft</w>":4181,"weltkriegs</w>":4182,"nord</w>":4183,"schmerzen</w>":4184,"marine</w>":4185,"sexuelle</w>":4186,"vaku":4187,"allgemein</w>":4188,"konföderation</w>":4189,"modernen</w>":4190,"barcelona</w>":4191,"konserv":4192,"aufzug</w>":4193,"stati":4194,"sequen":4195,"wissen</w>":4196,"tions</w>":4197,"rangiert</w>":4198,"katalanisch</w>":4199,"überle":4200,"92</w>":4201,"gerichte</w>":4202,"gemeinde</w>":4203,"fek":4204,"enter":4205,"sieg</w>":4206,"satelliten</w>":4207,"hayeks</w>":4208,"ließ</w>":4209,"volk</w>":4210,"firma</w>":4211,"verbrechen</w>":4212,"dritt":4213,"1995</w>":4214,"zerstör":4215,"feier":4216,"chol":4217,"präsidentschafts":4218,"male</w>":4219,"ktor</w>":4220,"british</w>":4221,"gesamt":4222,"beein":4223,"hohen</w>":4224,"medizin":4225,"prinz</w>":4226,"geschickt</w>":4227,"arbeitet</w>":4228,"verboten</w>":4229,"78</w>":4230,"prophe":4231,"kapazi":4232,"menge</w>":4233,"chopins</w>":4234,"ah":4235,"weder</w>":4236,"sive</w>":4237,"av":4238,"éri":4239,"dens</w>":4240,"gerin":4241,"phän":4242,"preis":4243,"massachusetts</w>":4244,"fbi</w>":4245,"profi":4246,"stizi":4247,"ety</w>":4248,"riba</w>":4249,"geschah</w>":4250,"steller</w>":4251,"analy":4252,"general":4253,"existenz</w>":4254,"alay":4255,"juli":4256,"miss":4257,"sutras</w>":4258,"verfügung</w>":4259,"druck":4260,"lösung</w>":4261,"fernsehen</w>":4262,"1948</w>":4263,"papst</w>":4264,"fern</w>":4265,"arena</w>":4266,"orienti":4267,"sun</w>":4268,"philadelphia</w>":4269,"sper":4270,"element</w>":4271,"may":4272,"mag":4273,"kilometer</w>":4274,"emon":4275,"proto":4276,"tv</w>":4277,"schwä":4278,"geli":4279,"konserva":4280,"transi":4281,"fonds</w>":4282,"oner</w>":4283,"metap":4284,"sprach":4285,"verlan":4286,"res</w>":4287,"alexander</w>":4288,"flei":4289,"wörter</w>":4290,"bilde":4291,"werte</w>":4292,"zeitschrift</w>":4293,"new":4294,"erforderlich</w>":4295,"gründe</w>":4296,"objekte</w>":4297,"mens</w>":4298,"beschränk":4299,"unterschiedliche</w>":4300,"thür":4301,"grä":4302,"fs":4303,"offizi":4304,"korruption</w>":4305,"klin":4306,"lehrer</w>":4307,"net":4308,"sichti":4309,"versammlung</w>":4310,"insti":4311,"institut":4312,"genö":4313,"tie</w>":4314,"chinesen</w>":4315,"japanische</w>":4316,"förmi":4317,"portugiesischen</w>":4318,"matisch</w>":4319,"bestehen</w>":4320,"zeichnete</w>":4321,"jeden</w>":4322,"cra":4323,"stiftung</w>":4324,"bringen</w>":4325,"schalt":4326,"35</w>":4327,"wählte</w>":4328,"court</w>":4329,"spanische</w>":4330,"umwelt":4331,"profess":4332,"bit</w>":4333,"mung</w>":4334,"polytechn":4335,"frederi":4336,"reagi":4337,"ranten</w>":4338,"kennen</w>":4339,"ziehen</w>":4340,"stung</w>":4341,"orismus</w>":4342,"entschieden</w>":4343,"ens":4344,"zink</w>":4345,"cubs</w>":4346,"bee":4347,"bew":4348,"nobel":4349,"richten</w>":4350,"opera":4351,"ufen</w>":4352,"ktionen</w>":4353,"osexualität</w>":4354,"ursprung</w>":4355,"kos</w>":4356,"united</w>":4357,"klassischen</w>":4358,"lamp":4359,"ding</w>":4360,"im":4361,"set</w>":4362,"fré":4363,"inen</w>":4364,"lan</w>":4365,"freimaur":4366,"anlagen</w>":4367,"neur":4368,"regionale</w>":4369,"core</w>":4370,"armeen</w>":4371,"tos</w>":4372,"meine</w>":4373,"breite</w>":4374,"comics</w>":4375,"vize":4376,"genössi":4377,"mittelalter</w>":4378,"philipp":4379,"ire</w>":4380,"veröffentlichte</w>":4381,"ologi":4382,"tzte</w>":4383,"rake":4384,"raja":4385,"sank":4386,"sanktionen</w>":4387,"mur":4388,"brü":4389,"xxi":4390,"xxiii</w>":4391,"nacht</w>":4392,"urhe":4393,"urheber":4394,"senheit</w>":4395,"helena</w>":4396,"quar":4397,"55</w>":4398,"feder":4399,"lationen</w>":4400,"bin</w>":4401,"1997</w>":4402,"disc</w>":4403,"schützen</w>":4404,"universal</w>":4405,"auth":4406,"unicode</w>":4407,"venezolaner</w>":4408,"spitzname</w>":4409,"erba":4410,"schott":4411,"schottland</w>":4412,"deckung</w>":4413,"kommun":4414,"erwä":4415,"häufigsten</w>":4416,"skopischen</w>":4417,"jährliche</w>":4418,"geschieht</w>":4419,"wahre</w>":4420,"aufzu":4421,"tal</w>":4422,"profes":4423,"fréd":4424,"frédéri":4425,"schwester</w>":4426,"kreuz":4427,"gemisch":4428,"refer":4429,"let":4430,"aen":4431,"gini":4432,"ony</w>":4433,"ming</w>":4434,"my":4435,"liegt</w>":4436,"and":4437,"wol":4438,"kal</w>":4439,"usd</w>":4440,"kins</w>":4441,"1952</w>":4442,"zeremon":4443,"tende</w>":4444,"zoll</w>":4445,"1976</w>":4446,"drich</w>":4447,"friedrich</w>":4448,"tausend</w>":4449,"zismus</w>":4450,"sohn</w>":4451,"yanmar</w>":4452,"myanmar</w>":4453,"nannte</w>":4454,"dritte</w>":4455,"ny":4456,"view</w>":4457,"spanisch</w>":4458,"teilnehmer</w>":4459,"route</w>":4460,"see</w>":4461,"mächti":4462,"elimini":4463,"society</w>":4464,"geburt</w>":4465,"fisch</w>":4466,"kath":4467,"od":4468,"mangel</w>":4469,"amtszeit</w>":4470,"weißen</w>":4471,"verwaltungs":4472,"1973</w>":4473,"ils</w>":4474,"fähigkeiten</w>":4475,"esten</w>":4476,"hyderabad</w>":4477,"fest</w>":4478,"darf</w>":4479,"kulturen</w>":4480,"chinesische</w>":4481,"ständig</w>":4482,"instal":4483,"blie":4484,"korre":4485,"dargestellt</w>":4486,"stech":4487,"pä":4488,"heter":4489,"jeder</w>":4490,"franzosen</w>":4491,"eingeladen</w>":4492,"kle":4493,"sommerzeit</w>":4494,"sicherheits":4495,"sand":4496,"profession":4497,"krö":4498,"regeln</w>":4499,"wechsel</w>":4500,"propheten</w>":4501,"jahrzehnte</w>":4502,"wissenschaftliche</w>":4503,"ni</w>":4504,"astro":4505,"symb":4506,"arische</w>":4507,"licht":4508,"ße</w>":4509,"my</w>":4510,"58</w>":4511,"philosophen</w>":4512,"gelegenheiten</w>":4513,"akte</w>":4514,"stierten</w>":4515,"vorha":4516,"protestanten</w>":4517,"bereiche</w>":4518,"organismus</w>":4519,"wissenschaften</w>":4520,"gemeinsame</w>":4521,"synago":4522,"schläge</w>":4523,"symmet":4524,"exp":4525,"monica</w>":4526,"tzahl</w>":4527,"östlichen</w>":4528,"eigh</w>":4529,"pedi":4530,"liban":4531,"gesellschaften</w>":4532,"1972</w>":4533,"nommen</w>":4534,"ok</w>":4535,"bot":4536,"schwarze</w>":4537,"ale":4538,"griffen</w>":4539,"stall":4540,"schreiben</w>":4541,"cal</w>":4542,"amtssprache</w>":4543,"eröffnet</w>":4544,"schuss</w>":4545,"mp</w>":4546,"gestal":4547,"________________________________________________________________________________________________________________________________":4548,"geworden</w>":4549,"unterschied</w>":4550,"schutz":4551,"rahmen</w>":4552,"nger</w>":4553,"monte":4554,"lösen</w>":4555,"wollen</w>":4556,"rm</w>":4557,"king</w>":4558,"amo":4559,"mission":4560,"südlichen</w>":4561,"austral":4562,"professor</w>":4563,"buch":4564,"kathmand":4565,"haf":4566,"gaben</w>":4567,"verur":4568,"tere</w>":4569,"aren</w>":4570,"clubs</w>":4571,"tschech":4572,"somalia</w>":4573,"buddhismus</w>":4574,"mie</w>":4575,"schutz</w>":4576,"gremi":4577,"gehei":4578,"indigenen</w>":4579,"colum":4580,"fäl":4581,"punk</w>":4582,"aufnahme</w>":4583,"vention</w>":4584,"behandelt</w>":4585,"halb":4586,"kathmandu</w>":4587,"netzwerk</w>":4588,"sports</w>":4589,"miami</w>":4590,"rede</w>":4591,"denk":4592,"obersten</w>":4593,"alterna":4594,"handlung</w>":4595,"durchschnittliche</w>":4596,"chester</w>":4597,"terrorismus</w>":4598,"benutzer</w>":4599,"ndo</w>":4600,"organisiert</w>":4601,"nahen</w>":4602,"gung":4603,"ernte</w>":4604,"produzierte</w>":4605,"300</w>":4606,"edward</w>":4607,"gelehrte</w>":4608,"42</w>":4609,"gebrauch</w>":4610,"japanischen</w>":4611,"izi":4612,"mün":4613,"arbeiter":4614,"riesi":4615,"wy":4616,"finanzielle</w>":4617,"lee</w>":4618,"rasse</w>":4619,"blieb</w>":4620,"gerichts":4621,"zeichnen</w>":4622,"früher</w>":4623,"marki":4624,"notwe":4625,"ffer":4626,"heu":4627,"anthr":4628,"historischen</w>":4629,"kritik</w>":4630,"dachte</w>":4631,"antar":4632,"glüh":4633,"hielten</w>":4634,"auto</w>":4635,"mich":4636,"67</w>":4637,"ausgegeben</w>":4638,"historische</w>":4639,"bahnen</w>":4640,"verhal":4641,"brachte</w>":4642,"davi":4643,"tausende</w>":4644,"orie</w>":4645,"gestorben</w>":4646,"verpflichtet</w>":4647,"sultan</w>":4648,"ya":4649,"führten</w>":4650,"ese</w>":4651,"wirkte</w>":4652,"dienst</w>":4653,"vorhanden</w>":4654,"bedrohung</w>":4655,"königliche</w>":4656,"schon</w>":4657,"aufzunehmen</w>":4658,"verhalten":4659,"jemand</w>":4660,"freien</w>":4661,"kreuz</w>":4662,"chtung</w>":4663,"damit</w>":4664,"ron</w>":4665,"henry</w>":4666,"gewähr":4667,"verteidigungs":4668,"zy":4669,"theismus</w>":4670,"aten</w>":4671,"problem</w>":4672,"diplo":4673,"za</w>":4674,"domin":4675,"parlament</w>":4676,"neuse":4677,"neuseela":4678,"orthodoxen</w>":4679,"angelegenheiten</w>":4680,"dichter</w>":4681,"micro":4682,"fikation</w>":4683,"enzen</w>":4684,"handlungen</w>":4685,"jähri":4686,"funktionen</w>":4687,"solar":4688,"gat":4689,"jede</w>":4690,"ebenen</w>":4691,"gehend</w>":4692,"gut":4693,"reaktionen</w>":4694,"klang</w>":4695,"stranten</w>":4696,"hohe</w>":4697,"debat":4698,"fuß</w>":4699,"liegen</w>":4700,"beschreiben</w>":4701,"bestimmten</w>":4702,"flügel</w>":4703,"impf":4704,"water</w>":4705,"archie</w>":4706,"kali":4707,"zeitgenössi":4708,"bestimmt</w>":4709,"malay":4710,"fizierte</w>":4711,"star</w>":4712,"interesse</w>":4713,"architekt":4714,"uan</w>":4715,"68</w>":4716,"hotel</w>":4717,"gens</w>":4718,"anthrop":4719,"gil":4720,"herstellung</w>":4721,"niederlage</w>":4722,"luft</w>":4723,"rett":4724,"anerkannt</w>":4725,"ant</w>":4726,"rebelli":4727,"staatlichen</w>":4728,"dies</w>":4729,"platten</w>":4730,"thürin":4731,"imam</w>":4732,"tenden</w>":4733,"investi":4734,"fon":4735,"kombin":4736,"allgemeines</w>":4737,"ada</w>":4738,"ac</w>":4739,"hit</w>":4740,"kum</w>":4741,"giegiegiegiegiegiegiegie":4742,"amt</w>":4743,"feind":4744,"reiste</w>":4745,"argumentierte</w>":4746,"raleigh</w>":4747,"fall":4748,"kontinent</w>":4749,"ndert</w>":4750,".\"</w>":4751,"einfach</w>":4752,"restau":4753,"einheiten</w>":4754,"arbeitung</w>":4755,"russisch</w>":4756,"films</w>":4757,"beschreibt</w>":4758,"vogel":4759,"musste</w>":4760,"rajast":4761,"verbot</w>":4762,"sou":4763,"völkermor":4764,"anfä":4765,"biss":4766,"geteilt</w>":4767,"bildungs":4768,"junge</w>":4769,"wand</w>":4770,"trägt</w>":4771,"fig":4772,"vorteil</w>":4773,"bier</w>":4774,"karl</w>":4775,"übertragen</w>":4776,"rajasthan</w>":4777,"studiert</w>":4778,"120</w>":4779,"sowjetische</w>":4780,"kern":4781,"frieden</w>":4782,"edi":4783,"allgemeinen</w>":4784,"orientierung</w>":4785,"sia</w>":4786,"erneuer":4787,"strahlt</w>":4788,"ausgestrahlt</w>":4789,"mächte</w>":4790,"river</w>":4791,"alisiert</w>":4792,"paki":4793,"ão</w>":4794,"queens</w>":4795,"ausbildung</w>":4796,"az":4797,"ay":4798,"hnt</w>":4799,"arbor</w>":4800,"konfli":4801,"ri</w>":4802,"tation</w>":4803,"abschnitt</w>":4804,"ph</w>":4805,"weitere</w>":4806,"studierte</w>":4807,"ansichten</w>":4808,"beliebte</w>":4809,"vielen</w>":4810,"ktion":4811,"personal</w>":4812,"gezogen</w>":4813,"gelegt</w>":4814,"jährlich</w>":4815,"regierung":4816,"divi":4817,"platte</w>":4818,"erwar":4819,"meeres":4820,"tibet</w>":4821,"got":4822,"pestizi":4823,"senal</w>":4824,"arsenal</w>":4825,"drid</w>":4826,"beamten</w>":4827,"erstellt</w>":4828,"eis":4829,"cu":4830,"gerichtshof</w>":4831,"sey</w>":4832,"spru":4833,"berge</w>":4834,"reform</w>":4835,"anneli":4836,"erwachsenen</w>":4837,"dominikan":4838,"1959</w>":4839,"manhattan</w>":4840,"zan":4841,"sozial":4842,"sech":4843,"ship</w>":4844,"extre":4845,"id</w>":4846,"moun":4847,"koali":4848,"regierungen</w>":4849,"alaskas</w>":4850,"isp</w>":4851,"demonstranten</w>":4852,"fenster</w>":4853,"falsche</w>":4854,"eb":4855,"famili":4856,"boards</w>":4857,"boli":4858,"blich</w>":4859,"terne</w>":4860,"reaktion</w>":4861,"kandida":4862,"abgeschlossen</w>":4863,"abkürz":4864,"kammer</w>":4865,"luftwa":4866,"frequ":4867,"trennte</w>":4868,"transpor":4869,"luftfahr":4870,"einsch":4871,"steuern</w>":4872,"vereinbarung</w>":4873,"sitze</w>":4874,"ethn":4875,"ermög":4876,"lichkei":4877,"time</w>":4878,"abteilung</w>":4879,"einwanderung</w>":4880,"entweder</w>":4881,"dge</w>":4882,";</w>":4883,"ersch":4884,"variation</w>":4885,"ehemalige</w>":4886,"1977</w>":4887,"unabhängige</w>":4888,"235</w>":4889,"cap":4890,"abgesch":4891,"dienen</w>":4892,"aserba":4893,"ieren</w>":4894,"offensive</w>":4895,"buchstab":4896,"rischen</w>":4897,"patienten</w>":4898,"ungsan":4899,"cli":4900,"charle":4901,"cop":4902,"wichtigen</w>":4903,"1967</w>":4904,"poten":4905,"cur":4906,"99</w>":4907,"cti":4908,"fleisch</w>":4909,"menschenrechte</w>":4910,"num":4911,"arznei":4912,"anwesenheit</w>":4913,"slowen":4914,"betrieb":4915,"sphäre</w>":4916,"klima":4917,"kinderarbeit</w>":4918,"bewegen</w>":4919,"federal</w>":4920,"nahme":4921,"entscheid":4922,"long</w>":4923,"konstante</w>":4924,"zeichnung</w>":4925,"toren</w>":4926,"entscheidung</w>":4927,"gesetzes":4928,"missbrau":4929,"ginia</w>":4930,"früh</w>":4931,"joão</w>":4932,"dicht</w>":4933,"abd":4934,"dür":4935,"tanz</w>":4936,"lateinische</w>":4937,"gn</w>":4938,"ereignete</w>":4939,"basiert</w>":4940,"ads</w>":4941,"lehre</w>":4942,"kontext</w>":4943,"german":4944,"bermuda</w>":4945,"abgehalten</w>":4946,"glühbir":4947,"reformen</w>":4948,"paler":4949,"öffentlichkeit</w>":4950,"orna":4951,"fliegen</w>":4952,"uritan":4953,"kandidat</w>":4954,"arabische</w>":4955,"josep":4956,"nato</w>":4957,"grundsätze</w>":4958,"koran</w>":4959,"protestantische</w>":4960,"urop":4961,"steurop":4962,"gelten</w>":4963,"syl":4964,"eliza":4965,"nötig</w>":4966,"jahres":4967,"bon":4968,"tland</w>":4969,"blü":4970,"gar</w>":4971,"comic</w>":4972,"bedarf</w>":4973,"shi</w>":4974,"port</w>":4975,"kathedralen</w>":4976,"ketzerei</w>":4977,"monarchie</w>":4978,"fül":4979,"überwie":4980,"label</w>":4981,"industriellen</w>":4982,"partei":4983,"si</w>":4984,"zin</w>":4985,"tionspro":4986,"niederländisch</w>":4987,"ierung</w>":4988,"behandel":4989,"hire</w>":4990,"rund</w>":4991,"ony":4992,"pole</w>":4993,"wahrnehm":4994,"cka":4995,"büro":4996,"gewinner</w>":4997,"bein":4998,"oberste</w>":4999},"merges":{"n </w>":0,"e r":1,"e </w>":2,"c h":3,"e n</w>":4,"t </w>":5,". .":6,"s </w>":7,"e i":8,"er </w>":9,"? </w>":10,"e l":11,"n d":12,"i e</w>":13,"s t":14,".. ..":15,", </w>":16,"s ch":17,"e n":18,"a n":19,"a r":20,"u n":21,"m </w>":22,"a l":23,"d er</w>":24,"d ie</w>":25,"g </w>":26,"g e":27,"a s</w>":28,"o n</w>":29,"a u":30,"l i":31,"t i":32,"w el":33,"o r":34,"wel ch":35,"s i":36,".... ....":37,"ei n":38,"nd </w>":39,"t e</w>":40,"- </w>":41,"u r":42,"e s</w>":43,"ei n</w>":44,"i n</w>":45,"v er":46,"a </w>":47,"o n":48,"h r":49,"i n":50,"b e":51,"i s":52,"h a":53,". </w>":54,"r i":55,"t en</w>":56,"d en</w>":57,"w as</w>":58,"ch </w>":59,"v on</w>":60,"r e":61,"n ein</w>":62,"z u":63,"un g</w>":64,"m i":65,"o l":66,"r a":67,"r o":68,"u nd</w>":69,"a t":70,"w ie</w>":71,"i sch":72,"e m</w>":73,"f ü":74,"........ ........":75,"l a":76,"d </w>":77,"is t</w>":78,"i el":79,"g en</w>":80,"w i":81,"r </w>":82,"s p":83,"d e</w>":84,"w ar":85,"welch e</w>":86,"d as</w>":87,"/ </w>":88,"n a":89,"w ur":90,"m a":91,"e t":92,"zu </w>":93,"f </w>":94,"s s":95,"0 </w>":96,"a hr":97,"en t":98,"ha t</w>":99,"t er":100,"t e":101,"fü r</w>":102,"o </w>":103,"g i":104,"l </w>":105,"d i":106,"n i":107,"ch t</w>":108,"a m":109,"o m":110,"j ahr":111,"w e":112,"a b":113,"d es</w>":114,"k </w>":115,"_ _":116,"wur de</w>":117,"r ei":118,"n e":119,"u m</w>":120,"d e":121,"a n</w>":122,"b i":123,"b er":124,"an n</w>":125,"i </w>":126,"li ch":127,"w er</w>":128,"b en</w>":129,"st a":130,"ein e</w>":131,"g e</w>":132,"nd er":133,"l e":134,"v iel":135,"1 9":136,"war </w>":137,"z i":138,"w ei":139,"c k":140,"w er":141,"s e":142,"f f":143,"................ ................":144,"2 0":145,"g r":146,"au f</w>":147,"h i":148,"ei t</w>":149,"o p":150,"l e</w>":151,"el </w>":152,"t h":153,"ti on</w>":154,"mi t</w>":155,"g en":156,"m en</w>":157,"u s</w>":158,"isch en</w>":159,"isch e</w>":160,"3 </w>":161,"viel e</w>":162,"ti on":163,"al s</w>":164,"welch em</w>":165,"i m</w>":166,"y </w>":167,"b ei":168,"p ro":169,"ri e":170,"a s":171,"welch er</w>":172,"w ann</w>":173,"st en</w>":174,"al </w>":175,"er t</w>":176,"z </w>":177,"wi r":178,"si ch</w>":179,"a f":180,"t ei":181,"m e":182,"u t":183,"\" </w>":184,"k on":185,"f i":186,"sch e</w>":187,"u s":188,"nd e":189,"un gen</w>":190,"g er":191,"e h":192,"un g":193,"welch es</w>":194,"m en":195,"2 </w>":196,"st i":197,"t er</w>":198,"h o":199,"sch en</w>":200,"el l":201,"1 </w>":202,"v i":203,"ch e</w>":204,"w a":205,"l o":206,"__ __":207,"z ei":208,"d em</w>":209,"b er</w>":210,"sch i":211,"f or":212,"k an":213,"wer den</w>":214,"v or":215,"st e</w>":216,"k g</w>":217,"ch t":218,"jahr </w>":219,"n en</w>":220,"sch af":221,"f r":222,"a k":223,"d er":224,"t r":225,"l au":226,"si nd</w>":227,"t ä":228,"un ter":229,"ch en</w>":230,"h u":231,"ung s":232,"f l":233,"k ö":234,"m o":235,"ur </w>":236,"au s</w>":237,"t ra":238,"au s":239,"un i":240,"lich e</w>":241,"et z":242,"s a":243,"s o":244,"ge b":245,"d en":246,"5 </w>":247,"k om":248,"nde t</w>":249,"h er":250,"la nd</w>":251,"n t</w>":252,"au f":253,"4 </w>":254,"li ch</w>":255,"s t</w>":256,"b a":257,"wir d</w>":258,"h al":259,"al e</w>":260,"er i":261,"7 </w>":262,"b en":263,"u p":264,"w o":265,"20 1":266,"t u":267,"nd en</w>":268,"8 </w>":269,"l ä":270,"w o</w>":271,"h ei":272,"m e</w>":273,"b </w>":274,"e s":275,"0 0</w>":276,"g u":277,"g t</w>":278,"p o":279,"w ä":280,"ein er</w>":281,"al i":282,"ar t</w>":283,"h ä":284,"te t</w>":285,"nd e</w>":286,"u l":287,"a m</w>":288,"s el":289,"ha ben</w>":290,"wur den</w>":291,"a p":292,"g el":293,"nd i":294,"ni cht</w>":295,"li e":296,"ge sch":297,"s am":298,"er ung</w>":299,"t t":300,"r ä":301,"d ur":302,"z wei":303,"m in":304,"ma nd":305,"m p":306,"f a":307,"w or":308,"................................ ................................":309,"na ch</w>":310,"ü ber</w>":311,"ü r":312,"r u":313,"t o":314,"sp iel":315,"t a":316,"t z":317,"ein en</w>":318,"l ei":319,"b o":320,"q u":321,"as s</w>":322,"a nder":323,"e k":324,"c </w>":325,"s u":326,"i hr":327,"m ar":328,"be g":329,"o der</w>":330,"( </w>":331,"h e":332,"g ro":333,"g er</w>":334,"s y":335,"l an":336,"k i":337,"20 0":338,"6 </w>":339,"t te</w>":340,"z e":341,"d ass</w>":342,"fü hr":343,"er te</w>":344,"u </w>":345,"ü ber":346,"schaf t</w>":347,"n or":348,"ge s":349,"w en":350,"er en</w>":351,"m m":352,"gro ß":353,"s ie</w>":354,"ol l":355,"ein em</w>":356,"re gi":357,"ein i":358,"lich en</w>":359,"s en":360,"ss en</w>":361,"h </w>":362,"d a":363,"welch en</w>":364,"b u":365,"sta d":366,"sch </w>":367,"er n</w>":368,"li n":369,"an z":370,"9 </w>":371,"al en</w>":372,"p ar":373,"b t</w>":374,"ver we":375,"____ ____":376,"wi ck":377,"isch </w>":378,"st ell":379,"al l":380,"h en</w>":381,"m an":382,"k rie":383,"a d":384,"ent wick":385,"ch te</w>":386,"tä t</w>":387,"1 8":388,"b ar":389,"tion en</w>":390,"a tion</w>":391,"h ö":392,"st ro":393,"g ra":394,"st ä":395,"n o":396,") </w>":397,"m u":398,"up p":399,"s e</w>":400,"h l":401,"b ri":402,"k la":403,"hu nder":404,"re cht":405,"ti sche</w>":406,"u m":407,"ar bei":408,"ö ff":409,"d u":410,"bei </w>":411,"f t</w>":412,"bi l":413,"stad t</w>":414,"tei l</w>":415,"l u":416,"ver si":417,"c i":418,"st e":419,"s on":420,"in ter":421,"h n":422,"hr </w>":423,"z eit</w>":424,"el i":425,"dur ch</w>":426,"b lau":427,"m us</w>":428,"f e":429,"m ei":430,"jahr hunder":431,"k eit</w>":432,"am eri":433,"m on":434,"t s</w>":435,"ein es</w>":436,"ti v":437,"we ch":438,"k e":439,"z w":440,"wen n</w>":441,"c k</w>":442,"f en</w>":443,"p er":444,"nd er</w>":445,"l ung</w>":446,"k o":447,"stro m</w>":448,"ha tte</w>":449,"s en</w>":450,"f ol":451,"wech sel":452,"2 0</w>":453,"g ol":454,"p rä":455,"or </w>":456,"v o":457,"g an":458,"w </w>":459,"al a":460,"r an":461,"g te</w>":462,"sp ra":463,"g ung</w>":464,"rei ch</w>":465,"j o":466,"blau er</w>":467,"l li":468,"or i":469,"e nd</w>":470,"na tion":471,"jahr e</w>":472,"öff ent":473,"ar </w>":474,"ö ß":475,"an t":476,"t y</w>":477,"s at":478,"zwei </w>":479,"zu m</w>":480,"st u":481,"ne u":482,"verwe ndet</w>":483,"sta a":484,"kö n":485,"er n":486,"p f":487,"r a</w>":488,"t s":489,"f f</w>":490,"vor </w>":491,"c o":492,"wechsel strom</w>":493,"0 00</w>":494,"x i":495,"ti n":496,"ut z":497,"d at":498,"gr öß":499,"st er</w>":500,"in g</w>":501,"d o":502,"ö l":503,"h eit</w>":504,"krie g</w>":505,"p re":506,"ss a":507,"j e":508,"t ung</w>":509,"k at":510,"th e":511,"gr upp":512,"s si":513,"♪ </w>":514,"uni versi":515,"h l</w>":516,"er e</w>":517,"is mus</w>":518,"z ent":519,"h men</w>":520,"war um</w>":521,"wä hr":522,"ba si":523,"ha nd":524,"r ü":525,"u b":526,"ge m":527,"fl u":528,"ol o":529,"war en</w>":530,"c e</w>":531,"ch i":532,"h au":533,"ff en</w>":534,"n e</w>":535,"p h":536,"kö ni":537,"st ra":538,"ß </w>":539,"schi e":540,"gol d</w>":541,"gr ü":542,"et s":543,"v ol":544,"mand ol":545,"mandol a</w>":546,"ab </w>":547,"el le</w>":548,"bi s</w>":549,"mi tt":550,"k t</w>":551,"g o":552,"fr ü":553,"viel </w>":554,"on en</w>":555,"jahrhunder t</w>":556,"p hi":557,"— </w>":558,"% </w>":559,"j u":560,"k a":561,"ma cht</w>":562,"ß er</w>":563,"po li":564,"hau p":565,"vo m</w>":566,"hei ß":567,"m et":568,"m er":569,"de ut":570,"m ä":571,"eh t</w>":572,"währ end</w>":573,"er ste</w>":574,"ch ti":575,"e ur":576,"d ar":577,"p </w>":578,"f u":579,"r e</w>":580,"zw ischen</w>":581,"ihr e</w>":582,"x </w>":583,"f in":584,"k en</w>":585,"i en</w>":586,"er sten</w>":587,"li en</w>":588,"öl k":589,"v ölk":590,"zei ch":591,"ala e</w>":592,"l t</w>":593,"h n</w>":594,"er v":595,"t ri":596,"l er</w>":597,"di es":598,"d rei":599,"en g":600,"prä si":601,"h e</w>":602,"ver eini":603,"e x":604,"ger ä":605,"au gu":606,"en t</w>":607,"19 9":608,"n te</w>":609,"s ü":610,"e t</w>":611,"eur op":612,"g el</w>":613,"augu st":614,"st at":615,"e der":616,"an nt</w>":617,"ets gi":618,"kom m":619,"ssa che</w>":620,"recht ssache</w>":621,"z ur</w>":622,"us s</w>":623,"na ch":624,"g ie</w>":625,"etsgi etsgi":626,"z iel":627,"r in":628,"d el":629,"zu sam":630,"mi t":631,"ma n</w>":632,"ke hr":633,"august us</w>":634,"gi e":635,"dat en":636,"v </w>":637,"men schen</w>":638,"y p":639,"ne t</w>":640,"st em</w>":641,"p ol":642,"a g":643,"f t":644,"ger i":645,"k a</w>":646,"k ar":647,"k en":648,"k or":649,"201 3</w>":650,"s on</w>":651,"l at":652,"gi bt</w>":653,"etz t</w>":654,"p i":655,"heiß t</w>":656,"an g":657,"ander e</w>":658,"pro du":659,"d schi":660,"ss e</w>":661,"ö r":662,"or en</w>":663,"i ndi":664,"1 2</w>":665,"o ff":666,"g ten</w>":667,"er d":668,"e nde</w>":669,"________ ________":670,"t on</w>":671,"g rie":672,"wei ßer</w>":673,"ge w":674,"g keit</w>":675,"ge bi":676,"k ann</w>":677,"p or":678,"ge s</w>":679,"ze u":680,"s ein</w>":681,"f ä":682,"be völk":683,"k ul":684,"arbei t":685,"t re":686,"ar b":687,"ti schen</w>":688,"r au":689,"al l</w>":690,"be zi":691,"wel t":692,"r eli":693,"m at":694,"ü tz":695,"s eine</w>":696,"entwick lung</w>":697,"t en":698,"na me</w>":699,"be kan":700,"el t</w>":701,"b au":702,"staa ten</w>":703,"w is":704,"r ö":705,"ch ten</w>":706,"l en</w>":707,"präsi den":708,"k t":709,"19 7":710,"p a":711,"' </w>":712,"ki r":713,"reli gi":714,"si ert</w>":715,"at o":716,"kön nen</w>":717,"ver öffent":718,"ch in":719,"ge gen</w>":720,"gerä te</w>":721,"li cht</w>":722,"d ri":723,"ri ff</w>":724,"me hr</w>":725,"mi lli":726,"s ä":727,"si e":728,"ameri kan":729,"s ver":730,"p ub":731,"jahr en</w>":732,"sp an":733,"spra che</w>":734,"o f</w>":735,"hal ten</w>":736,"6 3</w>":737,"t t</w>":738,"an k":739,"drei </w>":740,"ar i":741,"be sch":742,"ä nder":743,"an ato":744,"ol </w>":745,"sat z</w>":746,"mu si":747,"u nd":748,"ei </w>":749,"st ar":750,"th </w>":751,"en te</w>":752,"eini ge</w>":753,"sti mm":754,"fi ndet</w>":755,"c om":756,"anato lien</w>":757,"h m":758,"en s</w>":759,"................................................................ ................................................................":760,"g lie":761,"k ra":762,"d s</w>":763,"kon tin":764,"st an":765,"el n</w>":766,"sch ri":767,"k e</w>":768,"m al</w>":769,"b el":770,"k ü":771,"19 8":772,"f rei":773,"w ür":774,"grupp e</w>":775,"h in":776,"an ge":777,"führ t</w>":778,"sch la":779,"ne hmen</w>":780,"ar in</w>":781,"si on</w>":782,"al geb":783,"flu g":784,"1 7":785,"i nd":786,"erv a</w>":787,"min erva</w>":788,"grie ch":789,"we st":790,"ß en</w>":791,"ch ar":792,"ch ri":793,"ss er</w>":794,"l dschi":795,"sy stem</w>":796,"mand arin</w>":797,"ber ei":798,"t an":799,"min i":800,"ell en</w>":801,"dur ch":802,"präsiden t</w>":803,"ldschi ldschi":804,"i r":805,"wa ch":806,"n g":807,"ch tet</w>":808,"or gan":809,"mit glie":810,"gen om":811,"h ar":812,"s ol":813,"ver arbeit":814,"wir t":815,"f ahr":816,"m a</w>":817,"se hen</w>":818,"en z":819,"ne w</w>":820,"hä n":821,"verarbeit ungs":822,"pub li":823,"basi d</w>":824,"sta nd":825,"bevölk erung</w>":826,"f er":827,"f ra":828,"ab basid</w>":829,"wis sen":830,"algeb ra</w>":831,"haup t":832,"g s</w>":833,"daten verarbeitungs":834,"b ra":835,"fi zi":836,"wi chti":837,"t es</w>":838,"ni s</w>":839,"t el</w>":840,"sch er</w>":841,"datenverarbeitungs geräte</w>":842,"n ung</w>":843,"vereini gten</w>":844,"h y":845,"b ur":846,"k l":847,"beg ann</w>":848,"aus ge":849,"s k":850,"nor d":851,"t ro":852,"mi li":853,"te te</w>":854,"un k":855,"5 0</w>":856,"sch ul":857,"si sche</w>":858,"g a":859,"ander en</w>":860,"ben g":861,"m ber</w>":862,"k u":863,"si schen</w>":864,"g ab</w>":865,"f e</w>":866,"v e":867,"mei sten</w>":868,"bekan nt</w>":869,"p al":870,"f te</w>":871,"stell t</w>":872,"b y":873,"w ahr":874,"d in":875,"z ur":876,"t ten</w>":877,"i l":878,"kehr sver":879,"g lau":880,"k re":881,"pf el</w>":882,"or t</w>":883,"rie ben</w>":884,"z o":885,"lan ge</w>":886,"europ ä":887,"r en</w>":888,"et z</w>":889,"köni g":890,"na h":891,"gen annt</w>":892,"unter nehmen</w>":893,"nd ung</w>":894,"el e":895,"c ol":896,"la nd":897,"er ten</w>":898,"ver tra":899,"m s</w>":900,"au ch</w>":901,"v en":902,"zei t":903,"u st":904,"men t</w>":905,"st eht</w>":906,"groß e</w>":907,"n er</w>":908,"an g</w>":909,"kehrsver kehrsver":910,"ar ten</w>":911,"fr anz":912,"l etz":913,"beng alen</w>":914,"f o":915,"th e</w>":916,"ä pfel</w>":917,"te ch":918,"mi o</w>":919,"de ck":920,"i s</w>":921,"o ber":922,"st am":923,"un ter</w>":924,"spiel </w>":925,"z a":926,"r on":927,"stu di":928,"sta nd</w>":929,"for ma":930,"sp e":931,"sti tu":932,"st ütz":933,"m us":934,"h er</w>":935,"zur ü":936,"beg riff</w>":937,"s etz":938,"au </w>":939,"ges etz</w>":940,"en er":941,"erd äpfel</w>":942,"4 7</w>":943,"ni eder":944,"zusam men</w>":945,"sü d":946,"stä ndi":947,"n a</w>":948,"sch u":949,"v e</w>":950,"re publi":951,"wo für</w>":952,"7 1</w>":953,"st er":954,"s ei":955,"s om":956,"i ert</w>":957,"sta at":958,"genom men</w>":959,"kom p":960,"t a</w>":961,"wel t</w>":962,"st o":963,"e g":964,"v oll":965,"so zi":966,"kom men</w>":967,"inter nation":968,"ein ge":969,"m or":970,"t o</w>":971,"olo gie</w>":972,"musi k</w>":973,"ge ben</w>":974,"be findet</w>":975,"unter stütz":976,"kir che</w>":977,"mitt el":978,"d ung</w>":979,"hi e":980,"ho ch</w>":981,"ben utz":982,"i i</w>":983,"sp i":984,"1 0</w>":985,"veröffent licht</w>":986,"tiv e</w>":987,"i d":988,"ur sa":989,"gem ein":990,"n ur</w>":991,"b ür":992,"k er</w>":993,"universi tät</w>":994,"jo hn</w>":995,"9 0</w>":996,"rei ch":997,"milli onen</w>":998,"for m</w>":999,"s or":1000,"regi erung</w>":1001,"st or":1002,"nder n</w>":1003,"p op":1004,"a t</w>":1005,"g h":1006,"ge macht</w>":1007,"19 </w>":1008,"hie ß</w>":1009,"isch er</w>":1010,"ta g</w>":1011,"ur sp":1012,"19 4":1013,"wi l":1014,"k am":1015,"produ k":1016,"mi sche</w>":1017,"zeich net</w>":1018,"in i":1019,"kontin ente</w>":1020,"p lat":1021,"me hr":1022,"ei g":1023,"sch ei":1024,"sp re":1025,"schaf t":1026,"mili tä":1027,"kla ssi":1028,"o ft</w>":1029,"ein zi":1030,"g lei":1031,"p e":1032,"gra m":1033,"sch war":1034,"lo s":1035,"s er":1036,"in n":1037,"ci ty</w>":1038,"n ten</w>":1039,"fi l":1040,"ge schi":1041,"de u":1042,"ho li":1043,"er ungs":1044,"c or":1045,"3 0</w>":1046,"a ffen</w>":1047,"on s</w>":1048,"lä nd":1049,"w al":1050,"19 6":1051,"tei </w>":1052,"u te</w>":1053,"t ur":1054,"schaf ten</w>":1055,"gr und":1056,"stat t</w>":1057,"h ol":1058,"ol le</w>":1059,"ch er</w>":1060,"ä u":1061,"lo nd":1062,"bezi eh":1063,"sch lie":1064,"p as":1065,"zent r":1066,"z eh":1067,"d ro":1068,"tr an":1069,"kat holi":1070,"6 71</w>":1071,"ges etz":1072,"grü ndet</w>":1073,"b an":1074,"le ben</w>":1075,"o b":1076,"be wer":1077,"k al":1078,"ni en</w>":1079,"in stitu":1080,"i mp":1081,"ap i":1082,"al le</w>":1083,"h om":1084,"ti ert</w>":1085,"us a</w>":1086,"ek t</w>":1087,"ge gründet</w>":1088,"on nen</w>":1089,"n utz":1090,"zu g</w>":1091,"b ü":1092,"größ te</w>":1093,"fr ank":1094,"as t</w>":1095,"c on":1096,"voll ständi":1097,"chri st":1098,"s el</w>":1099,"gie gie":1100,"franz ö":1101,"fü n":1102,"tei l":1103,"ber ü":1104,"a gu":1105,"etsgietsgi etsgietsgi":1106,"her r":1107,"b te</w>":1108,"fa nd</w>":1109,"k ol":1110,"h iel":1111,"re cht</w>":1112,"ar chi":1113,"wür de</w>":1114,"201 0</w>":1115,"ge gen":1116,"3 47</w>":1117,"staa t</w>":1118,"ali tät</w>":1119,"af ri":1120,"r en":1121,"w em</w>":1122,"c a</w>":1123,"' s</w>":1124,"ver k":1125,"be we":1126,"di en":1127,"s eit</w>":1128,"wor t</w>":1129,"rie b</w>":1130,"c a":1131,"sy ste":1132,"c ar":1133,"de t</w>":1134,"la ge</w>":1135,"phi los":1136,"stä d":1137,"n ä":1138,"v al":1139,"ti gen</w>":1140,"tion s":1141,"k ri":1142,"fl uss</w>":1143,"köni g</w>":1144,"ri ch":1145,"j ap":1146,"ar me":1147,"republi k</w>":1148,"po si":1149,"1 8</w>":1150,"gr und</w>":1151,"st ru":1152,"g re":1153,"op </w>":1154,"vol u":1155,"stand ar":1156,"ver schie":1157,"k am</w>":1158,"z er":1159,"d is":1160,"philos op":1161,"a d</w>":1162,"fa ss":1163,"ei gen":1164,"p rei":1165,"le ben":1166,"oll te</w>":1167,"schwar z":1168,"vertra g</w>":1169,"k ur":1170,"men sch":1171,"pro z":1172,"re gel</w>":1173,"at er</w>":1174,"dies e</w>":1175,"eng li":1176,"al ter</w>":1177,"f eh":1178,"hö r":1179,"no ch</w>":1180,"be deu":1181,"ze p":1182,"gr enz":1183,"n at":1184,"por tu":1185,"ch e":1186,"gebi et</w>":1187,"fl anz":1188,"p flanz":1189,"le agu":1190,"leagu e</w>":1191,"m is":1192,"b li":1193,"au t</w>":1194,"on i":1195,"in s</w>":1196,"ch r</w>":1197,"w et":1198,"v en</w>":1199,"ne ben</w>":1200,"com p":1201,"u fi":1202,"te x":1203,"mo der":1204,"el l</w>":1205,"v a":1206,"nde te</w>":1207,"wei se</w>":1208,"gen er":1209,"________________ ________________":1210,"na men</w>":1211,"ha tten</w>":1212,"universi ty</w>":1213,"ä g":1214,"wir k":1215,"ter n</w>":1216,"tu n</w>":1217,"stam m":1218,"ge nd":1219,"wo hn":1220,"mi schen</w>":1221,"el ek":1222,"regi on</w>":1223,"b e</w>":1224,"f ern":1225,"berei ch</w>":1226,"d d":1227,"lä nder</w>":1228,"gesch rieben</w>":1229,"eh en</w>":1230,"c lu":1231,"y or":1232,"g n":1233,"g s":1234,"wa nd":1235,"rü ck":1236,"ti k</w>":1237,"hand el":1238,"j ä":1239,"all gem":1240,"1 5</w>":1241,"ak ter":1242,"komm uni":1243,"sch o":1244,"hä lt</w>":1245,"ver tei":1246,"19 5":1247,"organ is":1248,"be tra":1249,"s h":1250,"j un":1251,"sam m":1252,"kö r":1253,"st al":1254,"au t":1255,"st re":1256,"r us":1257,"ss er":1258,"ge or":1259,"ge fü":1260,"s o</w>":1261,"an ti":1262,"olo g":1263,"p un":1264,"wen i":1265,"o s</w>":1266,"sp ro":1267,"d au":1268,"d om":1269,"ursp rü":1270,"ha fen</w>":1271,"hä ufi":1272,"................................ ................":1273,"lich keit</w>":1274,"religi on</w>":1275,"b re":1276,"tra gen</w>":1277,"sel b":1278,"an ische</w>":1279,"verschie den":1280,"l l":1281,"ber i":1282,"er fol":1283,"ver su":1284,"201 1</w>":1285,"d a</w>":1286,"äg yp":1287,"1 3</w>":1288,"st en":1289,"on e</w>":1290,"de fin":1291,"200 7</w>":1292,"st ische</w>":1293,"g ar":1294,"ver l":1295,"is la":1296,"me di":1297,"gel e":1298,"f ten</w>":1299,"ge stellt</w>":1300,"bür ger":1301,"wi eder":1302,"wä hl":1303,"m al":1304,"j a":1305,"isch es</w>":1306,"uni on</w>":1307,"entwick elt</w>":1308,"geb aut</w>":1309,"schul en</w>":1310,"pro gram":1311,"grupp en</w>":1312,"i den":1313,"i de":1314,"lond on</w>":1315,"s s</w>":1316,"ant wor":1317,"tä ten</w>":1318,"yor k</w>":1319,"lo ssen</w>":1320,"berü hm":1321,"ss en":1322,"le hr":1323,"be stimm":1324,"ver ursa":1325,"pre mi":1326,"p la":1327,"tra di":1328,"spiel e</w>":1329,"hiel t</w>":1330,"schla cht</w>":1331,"tr au":1332,"pro te":1333,"fi nden</w>":1334,"lich er</w>":1335,"mm er</w>":1336,"b ru":1337,"te mp":1338,"ar men":1339,"lu ft":1340,"er at":1341,"l ü":1342,"unter schie":1343,"bri tan":1344,"se hr</w>":1345,"m ö":1346,"v an":1347,"................................................ ........":1348,"........................................................ ....":1349,"k rä":1350,"ursprü ng":1351,"ti g</w>":1352,"führ te</w>":1353,"ti sch</w>":1354,"an n":1355,"er hal":1356,"neu e</w>":1357,"l es</w>":1358,"s an":1359,"ver fass":1360,"s hi":1361,"al t</w>":1362,"k o</w>":1363,"spra chen</w>":1364,"6 0</w>":1365,"vol k":1366,"en ten</w>":1367,"f re":1368,"bei den</w>":1369,"ch er":1370,"ff e</w>":1371,"ver s":1372,"be su":1373,"organis ation</w>":1374,"e nd":1375,"sp or":1376,"tr en":1377,"jahrhunder ts</w>":1378,"kon tr":1379,"tiv </w>":1380,"s einer</w>":1381,"\" ?</w>":1382,"n an":1383,"c o</w>":1384,"si sch</w>":1385,"off i":1386,"200 9</w>":1387,"m ü":1388,"pro zent":1389,"o s":1390,"k ei":1391,"ander er</w>":1392,"k lä":1393,"ver antwor":1394,"tei le</w>":1395,"tech n":1396,"ge führt</w>":1397,"ameri ka</w>":1398,"ar ab":1399,"6 4</w>":1400,"t au":1401,"t el":1402,"zurü ck":1403,"vertei di":1404,"th o":1405,"groß en</w>":1406,"se x":1407,"ver ein":1408,"arme e</w>":1409,"gesch affen</w>":1410,"wi lli":1411,"201 2</w>":1412,"gan g</w>":1413,"in sel</w>":1414,"f ei":1415,"zei chen</w>":1416,"w s</w>":1417,"schlie ß":1418,"stra ß":1419,"p s</w>":1420,"e g</w>":1421,"ka is":1422,"z in":1423,"frank reich</w>":1424,"mus li":1425,"vollständi ges</w>":1426,"wet t":1427,"ges ell":1428,"la ssen</w>":1429,"be t":1430,"arb eit</w>":1431,"ö sen</w>":1432,"vi er":1433,"kön nte</w>":1434,"wirt schaft</w>":1435,"id ol</w>":1436,"de mo":1437,"h nen</w>":1438,"or d":1439,"wi e":1440,"re volu":1441,"................................................................................................................................ ................................................................":1442,"................................................................................................................................................................................................ ............................................................":1443,"pas siert</w>":1444,"wei ter":1445,"sex u":1446,"t zu</w>":1447,"ver bi":1448,"ldschildschi ldschildschi":1449,"se p":1450,"s ho":1451,"hu a</w>":1452,"g ab":1453,"neu en</w>":1454,". -</w>":1455,"ziel </w>":1456,"son nen</w>":1457,"zusam men":1458,"ur en</w>":1459,"f an":1460,"par k</w>":1461,"f arb":1462,"the or":1463,"so w":1464,"tr ä":1465,"ri cht":1466,"1 4</w>":1467,"4 0</w>":1468,"d am":1469,"d ra":1470,"da zu</w>":1471,"wett bewer":1472,"i b":1473,"an er</w>":1474,"prozent satz</w>":1475,"qu e":1476,"l y":1477,"ha n</w>":1478,"bar </w>":1479,"pro </w>":1480,"b s</w>":1481,"f unk":1482,"wa sser":1483,"vi er</w>":1484,"bewe gung</w>":1485,"bi bli":1486,"ha y":1487,"s kla":1488,"h el":1489,"z ä":1490,"bedeu tet</w>":1491,"ges etzt</w>":1492,"f a</w>":1493,"r y</w>":1494,"lei st":1495,"t lich</w>":1496,"flu ss":1497,"r ung</w>":1498,"ch op":1499,"na hmen</w>":1500,"kon f":1501,"archi te":1502,"p ri":1503,"p ra":1504,"st rei":1505,"krä fte</w>":1506,"chin a</w>":1507,"is ra":1508,"tz e</w>":1509,"is on</w>":1510,"sch ni":1511,"d on":1512,"d ru":1513,"ger ung</w>":1514,"leben s":1515,"ho ch":1516,"hei ten</w>":1517,"n en":1518,"n ungen</w>":1519,"groß britan":1520,"könig reich</w>":1521,"ti tel</w>":1522,"i t":1523,"z en</w>":1524,"k ran":1525,"au to":1526,"führ er</w>":1527,"sch n":1528,"nach dem</w>":1529,"us t</w>":1530,"beg in":1531,"al ismus</w>":1532,"f rie":1533,"er lau":1534,"v in":1535,"k ro":1536,"wo hl</w>":1537,"in e</w>":1538,"er eig":1539,"demo kra":1540,"bu ch</w>":1541,"ek te</w>":1542,"col le":1543,"tr upp":1544,"sa gte</w>":1545,"p er</w>":1546,"b rau":1547,"b rei":1548,"amerikan ische</w>":1549,"be mer":1550,"ge sehen</w>":1551,"hän gi":1552,"ab hängi":1553,"zi ert</w>":1554,"t ür":1555,"mitglie der</w>":1556,"schu le</w>":1557,"iden ti":1558,"ener gie</w>":1559,"hö ch":1560,"jä hr":1561,"per son":1562,"e ten</w>":1563,"p lan":1564,"me xi":1565,"ph y":1566,"sch rieb</w>":1567,"h i</w>":1568,"ck e</w>":1569,"en e</w>":1570,"e a</w>":1571,"m er</w>":1572,"met ho":1573,"fä hi":1574,"zeu gen</w>":1575,"2 5</w>":1576,"per son</w>":1577,"201 4</w>":1578,"es en</w>":1579,"b at":1580,"ind ust":1581,"ver sch":1582,"ti ge</w>":1583,"deut sch":1584,"k ä":1585,"bi o":1586,"k eine</w>":1587,"w hi":1588,"up </w>":1589,"an teil</w>":1590,"all en</w>":1591,"1 7</w>":1592,"o t":1593,"kehrsverkehrsver kehrsverkehrsver":1594,"l le</w>":1595,"amerikan ischen</w>":1596,"ihr er</w>":1597,"ak t":1598,"c ent":1599,"na mi":1600,"wissen schaft":1601,"bu dd":1602,"1 5":1603,"s h</w>":1604,"1 6</w>":1605,"unter su":1606,"ap p":1607,"u th</w>":1608,"w en</w>":1609,"se k":1610,"ti erte</w>":1611,"an ischen</w>":1612,"städ te</w>":1613,"si n":1614,"kt ur</w>":1615,"st ri":1616,"bibli o":1617,"stell en</w>":1618,"fin anz":1619,"philosop h":1620,"s einen</w>":1621,"letz te</w>":1622,"nah me</w>":1623,"g ste</w>":1624,"st off":1625,"mä n":1626,"h t</w>":1627,"sto ff</w>":1628,"ver änder":1629,"hin g":1630,"p an":1631,"be zug</w>":1632,"kon zep":1633,"indi en</w>":1634,"fl ü":1635,"d et":1636,"ss y":1637,"bil dung</w>":1638,"proz ent</w>":1639,"e d":1640,"we st</w>":1641,"ver wal":1642,"chin e":1643,"c an</w>":1644,"n is":1645,"uni vers":1646,"ihr en</w>":1647,"sti eg</w>":1648,"r ie</w>":1649,"m au":1650,"ali en</w>":1651,"men te</w>":1652,"gi en</w>":1653,"gesch lossen</w>":1654,"bri tische</w>":1655,"zwei ten</w>":1656,"groß </w>":1657,"ö der":1658,"gen e</w>":1659,"k op":1660,"ä hn":1661,"k un":1662,"standar d</w>":1663,"europä ischen</w>":1664,"hei li":1665,"i r</w>":1666,"al t":1667,"s etzt</w>":1668,"mat eri":1669,"erhal b</w>":1670,"v er</w>":1671,"u t</w>":1672,"her r</w>":1673,"wer t</w>":1674,"lin ie</w>":1675,"for der":1676,"tiv en</w>":1677,"ti k":1678,"l d</w>":1679,"y o":1680,"ei sen":1681,"hi stor":1682,"dom ini":1683,"o lin":1684,"hl en</w>":1685,"dies er</w>":1686,"ber t</w>":1687,"a hua</w>":1688,"s a</w>":1689,"trupp en</w>":1690,"la gen</w>":1691,"tho do":1692,"del l</w>":1693,"p at":1694,"in forma":1695,"a c":1696,"ch s</w>":1697,"f ör":1698,"spre chen</w>":1699,"par tei</w>":1700,"na sser</w>":1701,"te am</w>":1702,"er s</w>":1703,"sp ar":1704,"st r":1705,"e m":1706,"fil m</w>":1707,"poli tische</w>":1708,"großbritan nien</w>":1709,"el a":1710,"mi sch</w>":1711,"c am":1712,"sa ison</w>":1713,"al er</w>":1714,"bezieh ung</w>":1715,"20 0</w>":1716,"f er</w>":1717,"b ro":1718,"m ut":1719,"vi de":1720,"nd ungen</w>":1721,"frü hen</w>":1722,"mi l":1723,"ch ter</w>":1724,"w as":1725,"komm t</w>":1726,"fün f</w>":1727,"ge geben</w>":1728,"welt krieg</w>":1729,"k er":1730,"p p":1731,"mö g":1732,"h aus</w>":1733,"verantwor tlich</w>":1734,"un abhängi":1735,"geb ra":1736,"chi hu":1737,"chihu ahua</w>":1738,"y a</w>":1739,"t or":1740,"f all</w>":1741,"li </w>":1742,"kan ad":1743,"s la":1744,"bu nde":1745,"ti c</w>":1746,"sa gt</w>":1747,"revolu tion</w>":1748,"200 6</w>":1749,"s ollte</w>":1750,"1 00</w>":1751,"ab er</w>":1752,"europ a</w>":1753,"v ari":1754,"o kla":1755,"ur i":1756,"r d</w>":1757,"ge wi":1758,"geschi chte</w>":1759,"al ter":1760,"ge nde</w>":1761,"ein fluss":1762,"kör per":1763,"b all</w>":1764,"sel n</w>":1765,": </w>":1766,"z e</w>":1767,"wä r":1768,"bri tischen</w>":1769,"ent schei":1770,"gebra cht</w>":1771,"was hing":1772,"sch ein":1773,"z el":1774,"ss o":1775,"ägyp ten</w>":1776,"k tion</w>":1777,"gel a":1778,"jun i</w>":1779,"en z</w>":1780,"wissen schaft</w>":1781,"si cher":1782,"y on":1783,"ro </w>":1784,"p rin":1785,"e ndete</w>":1786,"ni e":1787,"je des</w>":1788,"thodo x":1789,"qu ad":1790,"l ö":1791,"g kei":1792,"poli zei":1793,"pre u":1794,"ber u":1795,"sch e":1796,"mini ster</w>":1797,"w in":1798,"trau m</w>":1799,"19 3":1800,"s erv":1801,"hä l":1802,"armen ien</w>":1803,"cent er</w>":1804,"p u":1805,"quad ra":1806,"rä n":1807,"prote stan":1808,"ü l":1809,"ver fü":1810,"flug zeu":1811,"geb äu":1812,"ck en</w>":1813,"gew in":1814,"spe zi":1815,"at lan":1816,"okla hom":1817,"e ben":1818,"fu nden</w>":1819,"war e</w>":1820,"kla sse</w>":1821,"hi l":1822,"verk auf":1823,"deutsch land</w>":1824,"wo her</w>":1825,"k api":1826,"fe u":1827,"sei te</w>":1828,"k as</w>":1829,"k ation</w>":1830,"f la":1831,"ar e</w>":1832,"t ori":1833,"di al":1834,"mä r":1835,"an we":1836,"p au":1837,"p ha":1838,"ti vi":1839,"e mp":1840,"europä ische</w>":1841,"b akter":1842,"fl ä":1843,"betra chtet</w>":1844,"au en</w>":1845,"o st":1846,"z un":1847,"weni ger</w>":1848,"bei spiel</w>":1849,"tradi tion":1850,"so nder":1851,"premi er</w>":1852,"g g":1853,"schaf ts":1854,"kan y":1855,"a nder</w>":1856,"ge nd</w>":1857,"l a</w>":1858,"gesch ä":1859,"y s</w>":1860,"fahr en</w>":1861,"arbei ten</w>":1862,"posi tion</w>":1863,"tech ni":1864,"fu ß":1865,"clu b</w>":1866,"her kul":1867,"bil det</w>":1868,"ti eren</w>":1869,"st ischen</w>":1870,"a te</w>":1871,"verschieden e</w>":1872,"i mmer</w>":1873,"w oll":1874,"jahr zeh":1875,"o k":1876,"1 1</w>":1877,"bar e</w>":1878,"wa nder":1879,"ä ra</w>":1880,"ti ere</w>":1881,"jap an</w>":1882,"ein zel":1883,"nieder länd":1884,"selb st</w>":1885,"ha mp":1886,"geri cht</w>":1887,"fr an":1888,"s c":1889,"ho ust":1890,"sch wer":1891,"ü n":1892,"pro b":1893,"8 0</w>":1894,"si cht</w>":1895,"wie der</w>":1896,"engli sch</w>":1897,"pflanz en</w>":1898,"mitglie d</w>":1899,"ant en":1900,"or thodox":1901,"si on":1902,"o sten</w>":1903,"stell ung</w>":1904,"tr e</w>":1905,"zi eren</w>":1906,"nä he</w>":1907,"pol e":1908,"ge t":1909,"tre ten</w>":1910,"lau tet</w>":1911,"be sie":1912,"r is":1913,"e k</w>":1914,"g ri":1915,"spiel t</w>":1916,"p eri":1917,"is land</w>":1918,"herkul es</w>":1919,"tür k":1920,"200 8</w>":1921,"geri cht":1922,"a hl</w>":1923,"20 00</w>":1924,"mexi ko</w>":1925,"wa hl</w>":1926,"p lo":1927,"eng land</w>":1928,"na pole":1929,"e xi":1930,"th er":1931,"volk s":1932,"biblio the":1933,"d r":1934,"d ä":1935,"am s</w>":1936,"washing ton</w>":1937,"e v":1938,"er rei":1939,"b all":1940,"er st</w>":1941,"m es</w>":1942,"t op</w>":1943,"offi ziel":1944,"es s</w>":1945,"for t":1946,"g ä":1947,"200 4</w>":1948,"mi tte</w>":1949,"gemein schaft</w>":1950,"ch ung</w>":1951,"katholi sche</w>":1952,"kais er</w>":1953,"ver wand":1954,"wei t</w>":1955,"bau </w>":1956,"zei gt</w>":1957,"b ung</w>":1958,"m ent":1959,"te st":1960,"b om":1961,"no ve":1962,"t z</w>":1963,"zentr um</w>":1964,"gew onnen</w>":1965,"rin gen</w>":1966,"sti l</w>":1967,"er hö":1968,"stimm ung</w>":1969,"hin zu":1970,"18 7":1971,"sch a":1972,"nd s</w>":1973,"a mi":1974,"for sch":1975,"kre u":1976,"la tion</w>":1977,"hn e</w>":1978,"nove mber</w>":1979,"deck t</w>":1980,"h a</w>":1981,"portu gie":1982,"le ute</w>":1983,"er klä":1984,"zurü ck</w>":1985,"führ ung</w>":1986,"g ungen</w>":1987,"militä r":1988,"wettbewer b</w>":1989,"wer k</w>":1990,"te mber</w>":1991,"ge funden</w>":1992,"produk tion</w>":1993,"s an</w>":1994,"mu se":1995,"informa tionen</w>":1996,"sch wei":1997,"veröffent lich":1998,"ver an":1999,"j ing</w>":2000,"ver bu":2001,"b ron":2002,"go tt</w>":2003,"i ra":2004,"glau ben</w>":2005,"m uss</w>":2006,"bibliothe k</w>":2007,"prei s</w>":2008,"fizi ert</w>":2009,"t ur</w>":2010,"p api":2011,"en si":2012,"y n":2013,"we ssen</w>":2014,"h en":2015,"mar s":2016,"tei lt</w>":2017,"defin iert</w>":2018,"$ </w>":2019,"o d</w>":2020,"j ekt</w>":2021,"atlan tic</w>":2022,"phi li":2023,"afri kan":2024,"kü n":2025,"in g":2026,"chop in</w>":2027,"sti m":2028,"öffent liche</w>":2029,"colle ge</w>":2030,"en en</w>":2031,"st isch</w>":2032,"f ar":2033,"f el":2034,"ri sche</w>":2035,"temp erat":2036,"ju gend":2037,"etsgietsgietsgietsgi etsgietsgietsgietsgi":2038,"del hi</w>":2039,"di re":2040,"g al</w>":2041,"be ss":2042,"houst on</w>":2043,"d oll":2044,"os man":2045,"e st":2046,"flug hafen</w>":2047,"ba hn</w>":2048,"sep tember</w>":2049,"wor auf</w>":2050,"sch we":2051,"einzi ge</w>":2052,"star k</w>":2053,"al ten</w>":2054,"et er":2055,"ge sam":2056,"su b":2057,"verwe nden</w>":2058,"f ang</w>":2059,"griech en":2060,"ti </w>":2061,"n ei":2062,"y mp":2063,"us e</w>":2064,"for m":2065,"r olle</w>":2066,"gesell schaft</w>":2067,"kontr olle</w>":2068,"gra ph":2069,"da ten</w>":2070,"ma don":2071,"so ut":2072,"willi am</w>":2073,"ne hm":2074,"m el":2075,") ,</w>":2076,"kul tur":2077,"u e</w>":2078,"herr schaft</w>":2079,"ver stä":2080,"ge spielt</w>":2081,"l er":2082,"schri ften</w>":2083,"lä ndern</w>":2084,"c s</w>":2085,"lin g</w>":2086,"ihr em</w>":2087,"giegie giegie":2088,"b c</w>":2089,"gebäu de</w>":2090,"s mus</w>":2091,"ra t</w>":2092,"w in</w>":2093,"g o</w>":2094,"sout hamp":2095,"de te</w>":2096,"durch schni":2097,"doll ar</w>":2098,"ge hör":2099,"ru ss":2100,"deut sche</w>":2101,"er ungen</w>":2102,"gen en</w>":2103,"au str":2104,"for d</w>":2105,"nutz en</w>":2106,"vi c":2107,"j et":2108,"sow jet":2109,"elek tri":2110,"glei ch":2111,"ver bo":2112,"ar ch":2113,"ihr </w>":2114,"mars hal":2115,"be yon":2116,"hei ts":2117,"pun kt</w>":2118,"er hielt</w>":2119,"t ar":2120,"g ungs":2121,"t on":2122,"wach st":2123,"ssy stem</w>":2124,"d ent":2125,"st ei":2126,"wei l</w>":2127,"st ab":2128,"2 2</w>":2129,"bi a</w>":2130,"z ü":2131,"rei ben</w>":2132,"ste u":2133,"pol y":2134,"au ß":2135,"kra ft</w>":2136,"si tz":2137,"ne te</w>":2138,"zä hl":2139,"quadra t":2140,"! </w>":2141,"rö mischen</w>":2142,"er ei</w>":2143,"w a</w>":2144,"xi s</w>":2145,"ursprüng lich</w>":2146,"s wer":2147,"bri ten</w>":2148,"größ ten</w>":2149,"wa sser</w>":2150,"t ter</w>":2151,"theor ie</w>":2152,"unter zeichnet</w>":2153,"el li":2154,"verbu nden</w>":2155,"franzö sischen</w>":2156,"wor den</w>":2157,"farb e</w>":2158,"we gen</w>":2159,"w n</w>":2160,"philosoph ie</w>":2161,"p ly":2162,"si erte</w>":2163,"p ti":2164,"versi on</w>":2165,"mo uth</w>":2166,"oklahom a</w>":2167,"an zu":2168,"er weise</w>":2169,"tu c":2170,"ro y":2171,"g h</w>":2172,"o li":2173,"sp ei":2174,"institu t</w>":2175,"z we":2176,"fa ck":2177,"st ü":2178,"dam e</w>":2179,"schwarz en":2180,"verwe ndung</w>":2181,"kul tur</w>":2182,"al as":2183,"st ehen</w>":2184,"zi erte</w>":2185,"c ro":2186,"no tre</w>":2187,"verfass ung</w>":2188,"pf lich":2189,"ben annt</w>":2190,"char les</w>":2191,"schwarzen eg":2192,"b is":2193,"ent fer":2194,"be fand</w>":2195,"h in</w>":2196,"spi tz":2197,"nis se</w>":2198,"co un":2199,"an z</w>":2200,"mär z</w>":2201,"bi r":2202,"ameri can</w>":2203,"sch l":2204,"l or":2205,"a sp":2206,"syste me</w>":2207,"a zi":2208,"ge bildet</w>":2209,"ö n":2210,"i a</w>":2211,"n u":2212,"schließ lich</w>":2213,"hay ek</w>":2214,"o v":2215,"2 1</w>":2216,"kany e</w>":2217,"ki nder</w>":2218,"wi nd":2219,"st on</w>":2220,"qu elle</w>":2221,"zei ten</w>":2222,"2 6</w>":2223,"ki l":2224,"m rd</w>":2225,"mehr heit</w>":2226,"sa i":2227,"gab e</w>":2228,"einge führt</w>":2229,"zo gen</w>":2230,"wür den</w>":2231,"1 0":2232,"1 6":2233,"kam en</w>":2234,"straß e</w>":2235,"ken swer":2236,"bemer kenswer":2237,"t yp":2238,"internation al</w>":2239,"fr auen</w>":2240,"ter i":2241,"fra ktion</w>":2242,"kir chen</w>":2243,"benutz te</w>":2244,"l ungen</w>":2245,"moder ne</w>":2246,"si gn":2247,"en ti":2248,"fe st":2249,"an s</w>":2250,"d ungs":2251,"s ul":2252,"g ust</w>":2253,"au gust</w>":2254,"5 00</w>":2255,"k te</w>":2256,"b a</w>":2257,"zwei te</w>":2258,"za hl":2259,"roy al</w>":2260,"re chte</w>":2261,"setz en</w>":2262,"en a</w>":2263,"st es</w>":2264,"gh t</w>":2265,"ck t</w>":2266,"mat he":2267,"mathe ma":2268,"g a</w>":2269,"g sten</w>":2270,"stre et</w>":2271,"a h</w>":2272,"re st":2273,"mo nd</w>":2274,"be zeichnet</w>":2275,"ply mouth</w>":2276,"er halten</w>":2277,"s einem</w>":2278,"tei li":2279,"g tes</w>":2280,"vereini gtes</w>":2281,"f akt":2282,"be am":2283,"fr au</w>":2284,"di gi":2285,"m ann</w>":2286,"fi r":2287,"e nden</w>":2288,"________________________________ ________________________________":2289,"frü he":2290,"p ak":2291,"tri tt</w>":2292,"sp ä":2293,"tei len</w>":2294,"handel s":2295,"ol ymp":2296,"ta ge</w>":2297,"bur g</w>":2298,"spiel en</w>":2299,"ss e":2300,"sch es</w>":2301,"kä mp":2302,"par is</w>":2303,"d y":2304,"2 4</w>":2305,"mehr ere</w>":2306,"c d</w>":2307,"d na</w>":2308,"an fang</w>":2309,"ak tion</w>":2310,"pro vin":2311,"c up</w>":2312,"g l":2313,"ch lich</w>":2314,"si onen</w>":2315,"zei traum</w>":2316,"a nd</w>":2317,"h ü":2318,"zo g</w>":2319,"nor fol":2320,"pau l</w>":2321,"erfol g</w>":2322,"sy m":2323,"st ein</w>":2324,"ein fa":2325,"k ris":2326,"bezi eht</w>":2327,"dat um</w>":2328,"spiel er</w>":2329,"gel d</w>":2330,"b eli":2331,"man ch":2332,"si erung</w>":2333,"u ver":2334,"archite ktur</w>":2335,"op er":2336,"de ze":2337,"komm is":2338,"land s</w>":2339,"ak tionen</w>":2340,"18 5":2341,"18 3":2342,"sch ü":2343,"et er</w>":2344,"den en</w>":2345,"co de</w>":2346,"op p":2347,"aus länd":2348,"mar kt</w>":2349,"bakter ien</w>":2350,"ur an</w>":2351,"religi ösen</w>":2352,"geor ge</w>":2353,"an a</w>":2354,"kon nte</w>":2355,"h ein":2356,"s ent":2357,"kar din":2358,"universi täten</w>":2359,"wirt schaft":2360,"haupt stadt</w>":2361,"dau ert</w>":2362,"heili gen</w>":2363,"ber g</w>":2364,"nah m</w>":2365,"zu erst</w>":2366,"el te</w>":2367,"201 5</w>":2368,"wohn er</w>":2369,"ha m</w>":2370,"lat ein":2371,"bunde s":2372,"j an":2373,"ver samm":2374,"mi kro":2375,"bei m</w>":2376,"ab kommen</w>":2377,"ir land</w>":2378,"er geb":2379,"ür z":2380,"200 5</w>":2381,"2 3":2382,"v ö":2383,"zwei ter</w>":2384,"tra t</w>":2385,"ck s</w>":2386,"n es</w>":2387,"ä re</w>":2388,"s al":2389,"ge wähl":2390,"se chs</w>":2391,"ap ri":2392,"apri l</w>":2393,"au ßer</w>":2394,"sch mer":2395,"jo h":2396,"hi r":2397,"nie dri":2398,"mitt el</w>":2399,".. </w>":2400,"g ei":2401,"g lo":2402,"sta ff":2403,"um s</w>":2404,"sta di":2405,"hal tung</w>":2406,"ö st":2407,"norfol k</w>":2408,"mar k</w>":2409,"ein fluss</w>":2410,"hr en</w>":2411,"ä l":2412,"gefü gt</w>":2413,"gkei ten</w>":2414,"ur t</w>":2415,"ge sagt</w>":2416,"ge hö":2417,"f al":2418,"beg onnen</w>":2419,"mei len</w>":2420,"ch am":2421,"ch an":2422,"eisen ho":2423,"kol on":2424,"for men</w>":2425,"ge fä":2426,"st ör":2427,"p ap":2428,"napole on</w>":2429,"pra xis</w>":2430,"h ung</w>":2431,"zi vi":2432,"kl eine</w>":2433,"mo sai":2434,"tu val":2435,"unterschie d":2436,"deze mber</w>":2437,"spor t":2438,"v ater</w>":2439,"d an":2440,"be deut":2441,"sch lu":2442,"z ol":2443,"pal ä":2444,"hinzu gefügt</w>":2445,"ann es</w>":2446,") .</w>":2447,"y an":2448,"c an":2449,"k lei":2450,"n er":2451,"nan jing</w>":2452,"f iel":2453,"kran k":2454,"c in":2455,"ger s</w>":2456,"defin i":2457,"gener al</w>":2458,"a ir</w>":2459,"in seln</w>":2460,"kat he":2461,"f lie":2462,"tau se":2463,"lin e</w>":2464,"zu stimmung</w>":2465,"b al":2466,"frü he</w>":2467,"griech ischen</w>":2468,"é </w>":2469,"rus sische</w>":2470,"j i":2471,"ra di":2472,"bedeut ung</w>":2473,"j ü":2474,"tuc son</w>":2475,"benutz t</w>":2476,"chri sten</w>":2477,"te he":2478,"whi tehe":2479,"li eren</w>":2480,"eh em":2481,"kathe dr":2482,"nd en":2483,"wa y</w>":2484,"ti er</w>":2485,"ver rin":2486,"fol gt</w>":2487,"zeich nungen</w>":2488,"gi lt</w>":2489,"ste t</w>":2490,"verbi ndungen</w>":2491,"ein satz</w>":2492,"bezi r":2493,"eigen schaften</w>":2494,"199 2</w>":2495,"ka ndi":2496,"phy si":2497,"pre s":2498,"pres by":2499,"t kräfte</w>":2500,"a is":2501,"reich es</w>":2502,"ob wohl</w>":2503,"f ast</w>":2504,"te sten</w>":2505,"schri ft</w>":2506,"kü ste</w>":2507,"ser vi":2508,"beg an":2509,"f öder":2510,"v ar":2511,"k ap":2512,"ran g</w>":2513,"v is":2514,"k li":2515,"ro m</w>":2516,"7 0</w>":2517,"ge mei":2518,"ju den</w>":2519,"recht s":2520,"w ör":2521,"ti scher</w>":2522,"basi s</w>":2523,"dar win</w>":2524,"vi r":2525,"span ien</w>":2526,"j ag":2527,"mi nder":2528,"ant a</w>":2529,"g ing</w>":2530,"ke hr</w>":2531,"sta tion</w>":2532,"be haup":2533,"ver hi":2534,"ö ster":2535,"1 2":2536,"t ele":2537,"lo k":2538,"ch ern</w>":2539,"rei bt</w>":2540,"t ak":2541,"wo od</w>":2542,"ne u</w>":2543,"einzi gen</w>":2544,"w ollte</w>":2545,"griech isch</w>":2546,"wor ld</w>":2547,"se h":2548,"konzep t</w>":2549,"southamp ton</w>":2550,"ma i</w>":2551,"west liche</w>":2552,"glei ch</w>":2553,"s ha":2554,"polizei </w>":2555,"in a</w>":2556,"s up":2557,"techni k</w>":2558,"kommis sion</w>":2559,"s oll":2560,"madon na</w>":2561,"at t":2562,"ib n</w>":2563,"ti ker</w>":2564,"ge o":2565,"begin n</w>":2566,"ju li</w>":2567,"verkauf t</w>":2568,"war d</w>":2569,"wo von</w>":2570,"sat z":2571,"ri cht</w>":2572,"geri chtet</w>":2573,"besu chen</w>":2574,"ener gie":2575,"tren nt</w>":2576,"ken n":2577,"ä r":2578,"k auf":2579,"li ert</w>":2580,"sie ben</w>":2581,"joh annes</w>":2582,"gele hr":2583,"isra el</w>":2584,"produk te</w>":2585,"pop u":2586,"ti er":2587,"o m</w>":2588,"o b</w>":2589,"f lo":2590,"ti be":2591,"gesch lagen</w>":2592,"re du":2593,"f ri":2594,"wor ben</w>":2595,"sol l</w>":2596,"za hl</w>":2597,"be feh":2598,"an er":2599,"presby teri":2600,"200 3</w>":2601,"materi al</w>":2602,"strei tkräfte</w>":2603,"t rei":2604,"da für</w>":2605,"spro chen</w>":2606,"da ß</w>":2607,"p rü":2608,"rei he</w>":2609,"mar </w>":2610,"kün st":2611,"ti gt</w>":2612,"to d</w>":2613,"verl oren</w>":2614,"d ert</w>":2615,"entfer nt</w>":2616,"schn ell</w>":2617,"an ten</w>":2618,"th ei":2619,"portu gal</w>":2620,"ha ven</w>":2621,"s er</w>":2622,"d re":2623,"tei lung</w>":2624,"z yp":2625,"komp on":2626,"ma ß":2627,"spiel te</w>":2628,"am ts":2629,"schl uss</w>":2630,"ne p":2631,"anten ne</w>":2632,"wo mit</w>":2633,"et te</w>":2634,"in sek":2635,"us er</w>":2636,"griechen land</w>":2637,"ni cht":2638,"k m</w>":2639,"la b":2640,"ch tete</w>":2641,"ang riff</w>":2642,"eri um</w>":2643,"spar tei</w>":2644,"preu ßen</w>":2645,"h te</w>":2646,"nami bia</w>":2647,"nat ür":2648,"stat t":2649,"so ft":2650,"wahr schein":2651,"richt ung</w>":2652,"b lo":2653,"o sexu":2654,"som ali":2655,"co mi":2656,"rö misch</w>":2657,"er de</w>":2658,"at or</w>":2659,"h aus":2660,"er forder":2661,"19 50</w>":2662,"entwick eln</w>":2663,"mi sch":2664,"qu i":2665,"groß er</w>":2666,"untersu chung</w>":2667,"ar ds</w>":2668,"religi ö":2669,"stu den":2670,"schri ft":2671,"ti mes</w>":2672,"m me</w>":2673,"k ron":2674,"stell te</w>":2675,"wa ffen</w>":2676,"gemein sam":2677,"p unk":2678,"re gel":2679,"öff net</w>":2680,"al es</w>":2681,"at er":2682,"zwe ck</w>":2683,"i ii</w>":2684,"russ land</w>":2685,"setz te</w>":2686,"ali sten</w>":2687,"no t":2688,"hand el</w>":2689,"4 9</w>":2690,"kris e</w>":2691,"n etz":2692,"be teili":2693,"zun eh":2694,"k up":2695,"t an</w>":2696,"finanz iel":2697,"häl fte</w>":2698,"o hne</w>":2699,"ran gi":2700,"ss t</w>":2701,"fe bru":2702,"at om":2703,"ak u":2704,"ang ri":2705,"in te":2706,"ell er</w>":2707,"indust ri":2708,"bra si":2709,"olog ische</w>":2710,"kom mand":2711,"rei che</w>":2712,"j am":2713,"sho w</w>":2714,"olin a</w>":2715,"gewin nen</w>":2716,"wi der":2717,"kl ein":2718,"si cht":2719,"lich es</w>":2720,"wirk ungen</w>":2721,"nation ale</w>":2722,"flä che</w>":2723,"som mer":2724,"for t</w>":2725,"be hand":2726,"lan g</w>":2727,"que en</w>":2728,"fol ge</w>":2729,"bezieh ungen</w>":2730,"afri ka</w>":2731,"manch mal</w>":2732,"be sonder":2733,"rän k":2734,"1 3":2735,"1 4":2736,"man n":2737,"sat elli":2738,"febru ar</w>":2739,"eben e</w>":2740,"mensch en":2741,"t ab":2742,"t ha":2743,"person en</w>":2744,"st ein":2745,"tre ffen</w>":2746,"män n":2747,"par la":2748,"su nd":2749,"ki nder":2750,"berühm te</w>":2751,"nä ch":2752,"wasser stoff</w>":2753,"ß i":2754,"cam p":2755,"eisenho wer</w>":2756,"be steht</w>":2757,"internation ale</w>":2758,"prob le":2759,"ein heit</w>":2760,"z h":2761,"regi on":2762,"v a</w>":2763,"at h":2764,"j etzt</w>":2765,"jugend liche</w>":2766,"verhi ndern</w>":2767,"g ad":2768,"gesch wi":2769,"isla mische</w>":2770,"bau m":2771,"g la":2772,"schwei z</w>":2773,"r un":2774,"metho de</w>":2775,"et wa</w>":2776,"unterstütz t</w>":2777,"o ws</w>":2778,"nor th":2779,"her gestellt</w>":2780,"scho ol</w>":2781,"griech ische</w>":2782,"hil fe</w>":2783,"milli ar":2784,"fack el</w>":2785,"ord nung</w>":2786,"erfol g":2787,"wichti ger</w>":2788,"inn erhalb</w>":2789,"kon stan":2790,"bevölk erungs":2791,"al a</w>":2792,"be dro":2793,"fizi erung</w>":2794,"bil den</w>":2795,"na tionen</w>":2796,"wach sen":2797,"er wachsen":2798,"din ge</w>":2799,"tuval u</w>":2800,"nation al</w>":2801,"li ter":2802,"fe sti":2803,"kon zent":2804,"e ff":2805,"e hr":2806,"ehem ali":2807,"öffent lichen</w>":2808,"rich ter</w>":2809,"kil om":2810,"comp ut":2811,"ldschildschildschildschi ldschildschildschildschi":2812,"anz ahl</w>":2813,"beli e":2814,"durchschni tt":2815,"forsch ung</w>":2816,"ban k</w>":2817,"st elle</w>":2818,"ge tragen</w>":2819,"gen e":2820,"zeit alter</w>":2821,"sozi ale</w>":2822,"scha ff":2823,"g anz":2824,"funk tion":2825,"i hn</w>":2826,"te ste</w>":2827,"ak tivi":2828,"program m</w>":2829,"kal e":2830,"ma chen</w>":2831,"ori en</w>":2832,"letz ten</w>":2833,"ör d":2834,"errei cht</w>":2835,"c el":2836,"dar auf</w>":2837,"män ner</w>":2838,"n om":2839,"ur e</w>":2840,"plat z</w>":2841,"verursa cht</w>":2842,"wo che</w>":2843,"schü ler</w>":2844,"klassi sche</w>":2845,"mensch lichen</w>":2846,"ent um</w>":2847,"gesetz e</w>":2848,"da von</w>":2849,"land es</w>":2850,"be o":2851,"beo ba":2852,"her e</w>":2853,"pop per</w>":2854,"stamm t</w>":2855,"north west":2856,"sta nden</w>":2857,"gad d":2858,"kat al":2859,"hol z</w>":2860,"i h":2861,"kön nten</w>":2862,"ben ö":2863,"f allen</w>":2864,"ein zu":2865,"fuß ball":2866,"b in":2867,"j </w>":2868,"o de</w>":2869,"b lu":2870,"m ol":2871,"si tz</w>":2872,"fern seh":2873,"v i</w>":2874,"vi du":2875,"der n</w>":2876,"ov as</w>":2877,"det ro":2878,"hän gt</w>":2879,"m on</w>":2880,"19 20</w>":2881,"le g":2882,"ak tu":2883,"a k</w>":2884,"ver pflich":2885,"be einfluss":2886,"beeinfluss t</w>":2887,"stu die</w>":2888,"k ürz":2889,"es sion</w>":2890,"tro p":2891,"d u</w>":2892,"4 00</w>":2893,"ger n</w>":2894,"sch ä":2895,"ber g":2896,"a gi":2897,"verfass ungs":2898,"app le</w>":2899,"au di":2900,"techn ologie</w>":2901,"di chte</w>":2902,"osman ischen</w>":2903,"milliar den</w>":2904,"türk ei</w>":2905,"beyon c":2906,"christ liche</w>":2907,"sse e</w>":2908,"auf zeichnungen</w>":2909,"7 5</w>":2910,"ver kehr":2911,"lie d</w>":2912,"be finden</w>":2913,"b lei":2914,"soft ware</w>":2915,"k in":2916,"indi vidu":2917,"krie gs":2918,"or s</w>":2919,"stim men</w>":2920,"zu stand</w>":2921,"k ti":2922,"jam es</w>":2923,"d ann</w>":2924,"grund le":2925,"er schi":2926,"elek tr":2927,"kanad a</w>":2928,"li by":2929,"began nen</w>":2930,"sa h</w>":2931,"j ekte</w>":2932,"li ber":2933,"wer ke</w>":2934,"er worben</w>":2935,"u ch":2936,"nen nen</w>":2937,"s z":2938,"j eh":2939,"jeh ovas</w>":2940,"............................................................................................................................................................................................................................................................ .</w>":2941,"tex t</w>":2942,"ein ander</w>":2943,"2 7</w>":2944,"schlie ßen</w>":2945,"bi eten</w>":2946,"ein wander":2947,"ag ent":2948,"ha m":2949,"lo s</w>":2950,"u ar</w>":2951,"jan uar</w>":2952,"nden sat":2953,"deut schen</w>":2954,"ar gu":2955,"poli tik</w>":2956,"änder ungen</w>":2957,"geschwi ndi":2958,"ver lassen</w>":2959,"sä tz":2960,"franzö sisch</w>":2961,"sch affen</w>":2962,"ba pti":2963,"ten ne":2964,"ge sund":2965,"studen ten</w>":2966,"setz ung</w>":2967,"f ische</w>":2968,"comput er</w>":2969,"ern en":2970,"i po":2971,"bar keit</w>":2972,"k u</w>":2973,"be frei":2974,"sam o":2975,"mi gra":2976,"schwarzeneg ger</w>":2977,"öster reich</w>":2978,"we sten</w>":2979,"gehör t</w>":2980,"kehrsverkehrsverkehrsverkehrsver kehrsverkehrsverkehrsverkehrsver":2981,"kor ea</w>":2982,"pol en</w>":2983,"ereig nis</w>":2984,"kun st</w>":2985,"stra fe</w>":2986,"si en</w>":2987,"gewähl t</w>":2988,"to ber</w>":2989,"ok tober</w>":2990,"n örd":2991,"bron x</w>":2992,"krie ges</w>":2993,"y l":2994,"forma t</w>":2995,"ko di":2996,"fe yn":2997,"ein gesetzt</w>":2998,"fin an":2999,"wir kt</w>":3000,"verstä nd":3001,"veran stal":3002,"versu chte</w>":3003,"staff el</w>":3004,"sch ütz":3005,"en ci":3006,"te ten</w>":3007,"ko ndensat":3008,"i hnen</w>":3009,"verschieden en</w>":3010,"ta t</w>":3011,"se att":3012,"stra te":3013,"ti n</w>":3014,"krie gs</w>":3015,"tä ts":3016,"di a</w>":3017,"g or":3018,"kolon ie</w>":3019,"ng ste</w>":3020,"it alien</w>":3021,"ab stamm":3022,"2 8</w>":3023,"glau bt</w>":3024,"b ten</w>":3025,"gadd af":3026,"schi ffe</w>":3027,"f en":3028,"i t</w>":3029,"us a":3030,"re gu":3031,"ent halten</w>":3032,"se nder</w>":3033,"jü d":3034,"ge hen</w>":3035,"regi erte</w>":3036,"selb st":3037,"an al":3038,"prä sen":3039,"an isch</w>":3040,"mm t</w>":3041,"e te</w>":3042,"tr u":3043,"ind ische</w>":3044,"y ale</w>":3045,"z er</w>":3046,"d opp":3047,"bre chen</w>":3048,"fakt or</w>":3049,"wei ß</w>":3050,"fra gen</w>":3051,"ent deckt</w>":3052,"............................................................................................................................................................................................................................................................ ..</w>":3053,"wä l":3054,"lä u":3055,"de s":3056,"nor mal":3057,"th om":3058,"tin g</w>":3059,"kar ne":3060,"a i</w>":3061,"se qu":3062,"a de</w>":3063,"sch au":3064,"ir gend":3065,"198 0</w>":3066,"sch le":3067,"erlau bt</w>":3068,"et t</w>":3069,"ab ge":3070,"hal t</w>":3071,"wind ows</w>":3072,"e u":3073,"größ e</w>":3074,"al li":3075,"b ank":3076,"ri chtet</w>":3077,"me chan":3078,"on ischen</w>":3079,"gewi cht</w>":3080,"ra te</w>":3081,"f alt</w>":3082,"ne ga":3083,"ge trennt</w>":3084,"ge zeigt</w>":3085,"musli me</w>":3086,"sam ur":3087,"mon at</w>":3088,"tt es</w>":3089,"mon ate</w>":3090,"we sent":3091,"gebi ete</w>":3092,"c ag":3093,"c at":3094,"199 1</w>":3095,"bel a":3096,"ge wann</w>":3097,"g ö":3098,"unterstütz ung</w>":3099,"berühm ten</w>":3100,"gehö ren</w>":3101,"ver bess":3102,"dial ekt</w>":3103,"j ung":3104,"untersu cht</w>":3105,"g as</w>":3106,"en n":3107,"en i":3108,"for ce</w>":3109,"er setzt</w>":3110,"höch ste</w>":3111,"star b</w>":3112,"er ung":3113,"ter ri":3114,"p a</w>":3115,"gegen über</w>":3116,"so ci":3117,"so li":3118,"premi er":3119,"m ein":3120,"ro man":3121,"wil l</w>":3122,"mittel alter":3123,"sla w":3124,"digi t":3125,"est land</w>":3126,"ck ing":3127,"fa nden</w>":3128,"sy ch":3129,"p sych":3130,"m ul":3131,"b bc</w>":3132,"ph on":3133,"get ö":3134,"er mor":3135,"spi ri":3136,"hä fen</w>":3137,"an o</w>":3138,"s anta</w>":3139,"mm et":3140,"ru ssen</w>":3141,"mitt eln</w>":3142,"bar en</w>":3143,"inter net</w>":3144,"sowjet union</w>":3145,"a cht</w>":3146,"par t":3147,"m m</w>":3148,"amerikan er</w>":3149,"tenne ssee</w>":3150,"a ch</w>":3151,"papi er</w>":3152,"er le":3153,"verk auf</w>":3154,"t sche":3155,"s ung</w>":3156,"ba hn":3157,"staat liche</w>":3158,"b y</w>":3159,"be sitz":3160,"beri cht</w>":3161,"ele mente</w>":3162,"w at":3163,"a de":3164,"18 9":3165,"ets gebi":3166,"unter schei":3167,"jahrzeh nt</w>":3168,"lä ngste</w>":3169,"sp ort</w>":3170,"ver tre":3171,"1 000</w>":3172,"na tion</w>":3173,"bur ke</w>":3174,"sozi alen</w>":3175,"vö gel</w>":3176,"sä u":3177,"auß erhalb</w>":3178,"proz ess</w>":3179,"vic tori":3180,"go uver":3181,"gouver ne":3182,"men tierte</w>":3183,"to des":3184,"re serv":3185,"zu sätz":3186,"lan g":3187,"199 8</w>":3188,"terri tori":3189,"dien st":3190,"er lan":3191,"straß en":3192,"ib m</w>":3193,"abstamm ung</w>":3194,"off ensi":3195,"körper s</w>":3196,"t ari":3197,"hal f</w>":3198,"u ten</w>":3199,"peri ode</w>":3200,"ein wohner</w>":3201,"gu in":3202,"do ku":3203,"whitehe ad</w>":3204,"di ent</w>":3205,"in ve":3206,"ss ung</w>":3207,"val enci":3208,"war t</w>":3209,"ma nd</w>":3210,"r k":3211,"rei chen</w>":3212,"v al</w>":3213,"katholi schen</w>":3214,"mo d":3215,"sup er":3216,"aus wirkungen</w>":3217,"ge star":3218,"por ation</w>":3219,"glo b":3220,"pro jekt</w>":3221,"a sso":3222,"k s</w>":3223,"feyn man</w>":3224,"ro ck</w>":3225,"lo se</w>":3226,"nor th</w>":3227,"ri ck</w>":3228,"dienst leist":3229,"lin ge</w>":3230,"hl t</w>":3231,"kon gre":3232,"st an</w>":3233,"an i":3234,"pro t":3235,"schri tte</w>":3236,"erklä r":3237,"pro p":3238,"ern annt</w>":3239,"seatt le</w>":3240,"bi et":3241,"mand olin":3242,"ge hol":3243,"gehol fen</w>":3244,"wi eri":3245,"sch wieri":3246,"it ali":3247,"getö tet</w>":3248,"d y</w>":3249,"4 8</w>":3250,"mei ster</w>":3251,"i l</w>":3252,"sk ri":3253,"ri si":3254,"stadi on</w>":3255,"ab schie":3256,"sicher heit</w>":3257,"i ma":3258,"ih m</w>":3259,"i li":3260,"ak ade":3261,"b rie":3262,"char akter":3263,"verwal tung</w>":3264,"unterstütz te</w>":3265,"thom as</w>":3266,"wissenschaft ler</w>":3267,"met er</w>":3268,"ell es</w>":3269,"stu nden</w>":3270,"car olina</w>":3271,"pha se</w>":3272,"st eh":3273,"syste ms</w>":3274,"mo dell</w>":3275,"s ar":3276,"st ens</w>":3277,"mar k":3278,"isra el":3279,"h or":3280,"ker ry</w>":3281,"kre di":3282,"viel falt</w>":3283,"zi g</w>":3284,"ber n</w>":3285,"do u</w>":3286,"bei dou</w>":3287,"jag d</w>":3288,"te d</w>":3289,"frühe ste</w>":3290,"mini st":3291,"lei ter</w>":3292,"ter min":3293,"ba nd</w>":3294,"eg o</w>":3295,"wachst um</w>":3296,"gesch le":3297,"k ein</w>":3298,"künst ler</w>":3299,"inter e":3300,"pla y":3301,"tradi tion</w>":3302,"hä user</w>":3303,"sow je":3304,"s eines</w>":3305,"mil ie</w>":3306,"gu t</w>":3307,"normal erweise</w>":3308,"ti siert</w>":3309,"r up":3310,"196 0</w>":3311,"ta ten</w>":3312,"fa milie</w>":3313,"som al":3314,"fol gte</w>":3315,"pla n</w>":3316,"muse um</w>":3317,"s ön":3318,"fo ot":3319,"win ter</w>":3320,"nehm er</w>":3321,"le gi":3322,"sti f":3323,"lä ssi":3324,"er ster</w>":3325,"ur n":3326,"& </w>":3327,"di ego</w>":3328,"frü h":3329,"197 0</w>":3330,"son y</w>":3331,"pal ast</w>":3332,"tik el</w>":3333,"ar tikel</w>":3334,"per sön":3335,"höch sten</w>":3336,"f ti":3337,"sü den</w>":3338,"e gel":3339,"mut ter</w>":3340,"nor den</w>":3341,"ven e":3342,"ge he":3343,"nd a</w>":3344,"ut r":3345,"ra ten</w>":3346,"kon stru":3347,"rich mond</w>":3348,"ch en":3349,"stor ben</w>":3350,"ni mmt</w>":3351,"ni geri":3352,"geb rau":3353,"le y</w>":3354,"organ i":3355,"wä re</w>":3356,"bi p</w>":3357,"ma ssen":3358,"e pi":3359,"k an</w>":3360,"zähl ung</w>":3361,"tra g</w>":3362,"identi tät</w>":3363,"auf grund</w>":3364,"häufi g</w>":3365,"ent hält</w>":3366,"t ungen</w>":3367,"an stieg</w>":3368,"t ter":3369,"lä n":3370,"ent schie":3371,"guin ea</w>":3372,"präsiden ten</w>":3373,"c y":3374,"on g</w>":3375,"san ce</w>":3376,"aut or</w>":3377,"sch lü":3378,"ver mei":3379,"zei gen</w>":3380,"met ro":3381,"o sti":3382,"proble me</w>":3383,"ähn lich</w>":3384,"kor e":3385,"comp an":3386,"compan y</w>":3387,"bel l</w>":3388,"bo ur":3389,"be nde</w>":3390,"servi ce</w>":3391,"wi r</w>":3392,"metho den</w>":3393,"lei tet</w>":3394,"hei t":3395,"qu e</w>":3396,"ma tische</w>":3397,"ver kehr</w>":3398,"ri chti":3399,"g ert</w>":3400,"li ght</w>":3401,"ren n":3402,"by u</w>":3403,"ak ter</w>":3404,"n ar":3405,"militä r</w>":3406,"c al":3407,"ursa che</w>":3408,"produ ziert</w>":3409,"ge sprochen</w>":3410,"gol d":3411,"maß nahmen</w>":3412,"wirt schafts":3413,"c re":3414,"f ung</w>":3415,"li ste</w>":3416,"in tel":3417,"hi gh</w>":3418,"go ttes</w>":3419,"zei gte</w>":3420,"konf öder":3421,"pa ar</w>":3422,"fün f":3423,"christ lich</w>":3424,"brasi li":3425,"recht s</w>":3426,"ak tive</w>":3427,"glau bte</w>":3428,"wichti ge</w>":3429,"ü ste</w>":3430,"der zeit</w>":3431,"r ela":3432,"herr scher</w>":3433,"in t</w>":3434,"grü ndung</w>":3435,"jo urn":3436,"er weiter":3437,"198 6</w>":3438,"ndi en</w>":3439,"sso ur":3440,"besie gt</w>":3441,"4 4</w>":3442,"er neu":3443,"b la":3444,"k rei":3445,"insek ten</w>":3446,"om ie</w>":3447,"ver sor":3448,"dar über</w>":3449,"fü r":3450,"er enden</w>":3451,"tran s":3452,"klä rung</w>":3453,"te ams</w>":3454,"den ken</w>":3455,"man ha":3456,"tä g":3457,"eh mi":3458,"le k":3459,"nutz t</w>":3460,"kontr ol":3461,"gen ehmi":3462,"17 0":3463,"defini tion</w>":3464,"auf ge":3465,"span nung</w>":3466,"ti erten</w>":3467,"schaff ung</w>":3468,"ho use</w>":3469,"hein ri":3470,"heinri ch</w>":3471,"mensch liche</w>":3472,"afrikan ische</w>":3473,"e ver":3474,"stoff e</w>":3475,"e van":3476,"mer k":3477,"frei heit</w>":3478,"grenz t</w>":3479,"geor gien</w>":3480,"ge gend</w>":3481,"auf genommen</w>":3482,"a si":3483,"mon i":3484,"w ri":3485,"ami </w>":3486,"19 0":3487,"heiß en</w>":3488,"stell ungen</w>":3489,"alas ka</w>":3490,"si eht</w>":3491,"bio ti":3492,"n ö":3493,"as e</w>":3494,"verein ten</w>":3495,"über tra":3496,"o te</w>":3497,"kron e</w>":3498,"pop ul":3499,"kup fer</w>":3500,"temperat uren</w>":3501,"o x":3502,"h ell":3503,"kommuni kation</w>":3504,"\" -</w>":3505,"de mon":3506,"ma xi":3507,"qu ali":3508,"ganz en</w>":3509,"zyp ern</w>":3510,"isla m</w>":3511,"k et":3512,"größ ere</w>":3513,"produ kt</w>":3514,"ver abschie":3515,"republi kan":3516,"g ori":3517,"ta i":3518,"gericht sho":3519,"bet rieb</w>":3520,"präsi dent":3521,"li n</w>":3522,"be tro":3523,"hl en":3524,"lie ßen</w>":3525,"bioti ka</w>":3526,"zurück zu":3527,"coun ty</w>":3528,"gä n":3529,"we g</w>":3530,"u n</w>":3531,"w rest":3532,"zu g":3533,"kor rup":3534,"beru f</w>":3535,"h inter":3536,"al b":3537,"al te</w>":3538,"ge fan":3539,"span ischen</w>":3540,"studi um</w>":3541,"deut sch</w>":3542,"reich s</w>":3543,"quadrat meilen</w>":3544,"e d</w>":3545,"skla ven</w>":3546,"nd es</w>":3547,"wor fen</w>":3548,"tradition elle</w>":3549,"chi cag":3550,"j ur":3551,"t ungs":3552,"t y":3553,"popul ari":3554,"ren ais":3555,"internation alen</w>":3556,"ge ber</w>":3557,"sü d</w>":3558,"regi erungs":3559,"samur ai</w>":3560,"pri va":3561,"u i":3562,"leist ung</w>":3563,"gew alt":3564,"pub s</w>":3565,"renais sance</w>":3566,"bo ston</w>":3567,"a ven":3568,"ver brei":3569,"sä tze</w>":3570,"ab schni":3571,"er richtet</w>":3572,"grenz e</w>":3573,"198 8</w>":3574,"t at":3575,"blau </w>":3576,"i ch</w>":3577,"i mm":3578,"könig in</w>":3579,"dies em</w>":3580,"inn en":3581,"t ol":3582,"wach se":3583,"us b</w>":3584,"t ut":3585,"ein s</w>":3586,"institu tion</w>":3587,"gela den</w>":3588,"elektri sche</w>":3589,"19 30</w>":3590,"vide o</w>":3591,"sa m</w>":3592,"ut recht</w>":3593,"fähi gkeit</w>":3594,"er ie</w>":3595,"bil d</w>":3596,"a g</w>":3597,"kon nten</w>":3598,"ter r":3599,"verfü g":3600,"bela gerung</w>":3601,"aner kan":3602,"cking ham</w>":3603,"ko h":3604,"hi nd":3605,"wor aus</w>":3606,"cham pi":3607,"s ei</w>":3608,"st he":3609,"st in":3610,"nach bar":3611,"handel s</w>":3612,"det a":3613,"s as</w>":3614,"manha tt":3615,"son g</w>":3616,"p ala":3617,"dies es</w>":3618,"allgem eine</w>":3619,"e f</w>":3620,"um s":3621,"ö kon":3622,"der i":3623,"christ entum</w>":3624,"stat us</w>":3625,"veränder t</w>":3626,"ipo d</w>":3627,"sie d":3628,"bürger krieg</w>":3629,"verteidi gung</w>":3630,"liter at":3631,"demokra tische</w>":3632,"un s</w>":3633,"he ute</w>":3634,"bü cher</w>":3635,"ä chlich</w>":3636,"indust rie</w>":3637,"2 3</w>":3638,"ma sch":3639,"budd hi":3640,"fä lle</w>":3641,"w üste</w>":3642,"provin z</w>":3643,"3 3</w>":3644,"g al":3645,"durch geführt</w>":3646,"fra ge</w>":3647,"r hy":3648,"rö mische</w>":3649,"nation al":3650,"g lü":3651,"zuneh men</w>":3652,"200 1</w>":3653,"frie den":3654,"chine sischen</w>":3655,"4 1</w>":3656,"studi en</w>":3657,"gele gen":3658,"auf klärung</w>":3659,"zi erung</w>":3660,"li ve</w>":3661,"ss el":3662,"program men</w>":3663,"we hr":3664,"dä ne":3665,"kar te</w>":3666,"to wn</w>":3667,"ver gleich</w>":3668,"unabhängi gkeit</w>":3669,"kommand o</w>":3670,"194 9</w>":3671,"bo den</w>":3672,"verursa chte</w>":3673,"pa ti":3674,"auto bahn</w>":3675,"er zeu":3676,"bet rie":3677,"char akter</w>":3678,"sch wer</w>":3679,"lehr en</w>":3680,"ak zep":3681,"v an</w>":3682,"northwest ern</w>":3683,"si eren</w>":3684,"ausländ ische</w>":3685,"flugzeu g</w>":3686,"medi en</w>":3687,"ts ächlich</w>":3688,"wach sen</w>":3689,"phi a</w>":3690,"etsgebi etsgebi":3691,"ver fahren</w>":3692,"to uri":3693,"schlu g</w>":3694,"f m</w>":3695,"chicag o</w>":3696,"be fu":3697,"bür ger</w>":3698,"orthodox e</w>":3699,"om en</w>":3700,"detro it</w>":3701,"einge stu":3702,"on a</w>":3703,"ang s":3704,"kommuni ka":3705,"beteili gt</w>":3706,"theor e":3707,"for scher</w>":3708,"ss es</w>":3709,"biet et</w>":3710,"199 0</w>":3711,"k etz":3712,"stru ktur</w>":3713,"nord amerika</w>":3714,"e mo":3715,"sp o":3716,"k ten</w>":3717,"be din":3718,"strate g":3719,"z ellen</w>":3720,"för der":3721,"kun st":3722,"staat s":3723,"cor poration</w>":3724,"st art</w>":3725,"ira n</w>":3726,"sten z</w>":3727,"le ds</w>":3728,"l em</w>":3729,"me er":3730,"eigen en</w>":3731,"vor her":3732,"staat es</w>":3733,"arbeit sp":3734,"däne mark</w>":3735,"ro ck":3736,"haup tsächlich</w>":3737,"c l":3738,"pi l":3739,"usa f</w>":3740,"mann schaft</w>":3741,"ub e</w>":3742,"portugie sische</w>":3743,"victori a</w>":3744,"mo tor":3745,"d unk":3746,"£ </w>":3747,"e w</w>":3748,"sch lä":3749,"neu er</w>":3750,"nat ur":3751,"pro ze":3752,"camp us</w>":3753,"komp le":3754,"so wohl</w>":3755,"wichti gste</w>":3756,"gestar tet</w>":3757,"wer t":3758,"kais er":3759,"vi lle</w>":3760,"kör per</w>":3761,"offiziel l</w>":3762,"al ex":3763,"zeh n</w>":3764,"osti ndien</w>":3765,"ver wei":3766,"dau erte</w>":3767,"marshal lin":3768,"baum woll":3769,"doku ment</w>":3770,"ander es</w>":3771,"ab gel":3772,"comp u":3773,"begin nt</w>":3774,"mor ph":3775,"mei ster":3776,"geb oren</w>":3777,"aus gabe</w>":3778,"alb um</w>":3779,"institu te</w>":3780,"geschwindi gkeit</w>":3781,"franzö sische</w>":3782,"gener ation</w>":3783,"c ub":3784,"ut z</w>":3785,"etsgietsgietsgietsgietsgietsgietsgietsgi etsgietsgietsgietsgietsgietsgietsgietsgi":3786,"militä rische</w>":3787,"bri ti":3788,"einzi gar":3789,"hö he</w>":3790,"bi </w>":3791,"ff t</w>":3792,"dy nami":3793,"e y</w>":3794,"ge ht</w>":3795,"unterstütz en</w>":3796,"herr sch":3797,"graph ie</w>":3798,"ex pre":3799,"der ab":3800,"verrin gerung</w>":3801,"fuß ball</w>":3802,"ta dschi":3803,"verl ust</w>":3804,"aut ori":3805,"trä ge</w>":3806,"engli schen</w>":3807,"hr ung</w>":3808,"re bel":3809,"bo x</w>":3810,"kat eg":3811,"fr u":3812,"musi k":3813,"skla ver":3814,"skla ven":3815,"ori da</w>":3816,"ma cin":3817,"macin to":3818,"ne um":3819,"us et":3820,"uset ts</w>":3821,"v es</w>":3822,"fizi eren</w>":3823,"b renn":3824,"sy n":3825,"yo ut":3826,"si chten</w>":3827,"olog ischen</w>":3828,"ur an":3829,"b or":3830,"dienstleist ungen</w>":3831,"grü n</w>":3832,"besch rieben</w>":3833,"sy na":3834,"gl et":3835,"poli tischen</w>":3836,"6 5</w>":3837,"nor men</w>":3838,"el ten</w>":3839,"macinto sh</w>":3840,"h ismus</w>":3841,"l ungs":3842,"e volu":3843,"b ell":3844,"ga st":3845,"fu nd":3846,"ori g":3847,"migra tion</w>":3848,"klei dung</w>":3849,"ro bert</w>":3850,"an genommen</w>":3851,"er ober":3852,"identi fiziert</w>":3853,"flugzeu ge</w>":3854,"ck er</w>":3855,"or den</w>":3856,"c t</w>":3857,"a be":3858,"hä re</w>":3859,"sch ö":3860,"a ch":3861,"sch w":3862,"l en":3863,"ver letz":3864,"minist erium</w>":3865,"zent ren</w>":3866,"m b":3867,"op i":3868,"t tern</w>":3869,"dru ck</w>":3870,"rück gang</w>":3871,"a st":3872,"er tes</w>":3873,"t ons</w>":3874,"ch usetts</w>":3875,"ssa chusetts</w>":3876,"nder s</w>":3877,"konf ession</w>":3878,"nation alität</w>":3879,"kathedr ale</w>":3880,"süd liche</w>":3881,"b äu":3882,"5 3</w>":3883,"ab schluss</w>":3884,"schla g</w>":3885,"ri en</w>":3886,"bu ckingham</w>":3887,"lie b":3888,"o u":3889,"veröffentlich ung</w>":3890,"beam te</w>":3891,"soll ten</w>":3892,"volk spartei</w>":3893,"masch ine</w>":3894,"ber mu":3895,"olymp ischen</w>":3896,"pflanz en":3897,"feu er</w>":3898,"schi ff</w>":3899,"marshallin seln</w>":3900,"an sicht</w>":3901,"frei e</w>":3902,"preu ß":3903,"wi en</w>":3904,"fel d</w>":3905,"l s</w>":3906,"k ub":3907,"wahrschein lich</w>":3908,"in stru":3909,"ange sehen</w>":3910,"ath le":3911,"re ssour":3912,"gerä t</w>":3913,"stä mme</w>":3914,"197 8</w>":3915,"ol d</w>":3916,"budd ha</w>":3917,"all es</w>":3918,"bar cel":3919,"ndi g</w>":3920,"gaddaf i</w>":3921,"bru ch</w>":3922,"grie chen</w>":3923,"bei getragen</w>":3924,"gefä hr":3925,"richt ungen</w>":3926,"ein richtungen</w>":3927,"rä u":3928,"er ende</w>":3929,"hei ma":3930,"heima t</w>":3931,"3 7</w>":3932,"arab isch</w>":3933,"jä ger</w>":3934,"tr y</w>":3935,"ide e</w>":3936,"er zeugen</w>":3937,"besch ä":3938,"anwe ndung</w>":3939,"vereini gte</w>":3940,"ch ter":3941,"über prü":3942,"j es":3943,"j ek":3944,"mü ssen</w>":3945,"199 3</w>":3946,"geb or":3947,"verein bar":3948,"erschi en</w>":3949,"the ater</w>":3950,"aven ue</w>":3951,"zei tung</w>":3952,"ge hir":3953,"ö st</w>":3954,"gel öst</w>":3955,"po st</w>":3956,"gen om</w>":3957,"kam pf":3958,"test s</w>":3959,"v in</w>":3960,"gefü hl</w>":3961,"pro f":3962,"volks zählung</w>":3963,"fiel d</w>":3964,"ck er":3965,"u nden</w>":3966,"mitglie d":3967,"führ en</w>":3968,". ?</w>":3969,"far ben</w>":3970,"geb ung</w>":3971,"leben s</w>":3972,"mä ßi":3973,"ergeb nis</w>":3974,"st ie</w>":3975,"ab gesehen</w>":3976,"fl orida</w>":3977,"arbei ter</w>":3978,"sk op":3979,"vide o":3980,"betro ffen</w>":3981,"ge nden</w>":3982,"ha nd</w>":3983,"ge plan":3984,"itali en":3985,"t hr":3986,"t hi":3987,"spre ch":3988,"kompon enten</w>":3989,"auf bau</w>":3990,"premier minister</w>":3991,"offiziel le</w>":3992,"c us</w>":3993,"t wi":3994,"po st":3995,"rhy th":3996,"i rische</w>":3997,"bekan n":3998,"stad t":3999,"bezir k</w>":4000,"kan sas</w>":4001,"rus sischen</w>":4002,"ursprüng liche</w>":4003,"194 5</w>":4004,"t b</w>":4005,"erlau bte</w>":4006,"ali stische</w>":4007,"z one</w>":4008,"ziel e</w>":4009,"agent ur</w>":4010,"sklaver ei</w>":4011,"ar z":4012,"ko s":4013,"li nien</w>":4014,"fe ss":4015,"zw an":4016,"ti to</w>":4017,"mol ek":4018,"anti biotika</w>":4019,"gg gg":4020,"bil dete</w>":4021,"o sen</w>":4022,"h an":4023,"a tionen</w>":4024,"religiö se</w>":4025,"s au":4026,"s lo":4027,"vene zol":4028,"° </w>":4029,"del phia</w>":4030,"la delphia</w>":4031,"änder ung</w>":4032,"s wa":4033,"197 4</w>":4034,"yout ube</w>":4035,"we sen</w>":4036,"hy derab":4037,"konzent ra":4038,"grund lage</w>":4039,"ge g":4040,"el s</w>":4041,"be stä":4042,"lok alen</w>":4043,"vermei den</w>":4044,"ko hlen":4045,"rau m</w>":4046,"mi eren</w>":4047,"neum ann</w>":4048,"asp ekt</w>":4049,"mau r":4050,"gebi eten</w>":4051,"utr as</w>":4052,"is o</w>":4053,"7 00</w>":4054,"foot ball</w>":4055,"ger te</w>":4056,"r al":4057,"beyonc é</w>":4058,"i k</w>":4059,"imm un":4060,"über gan":4061,"gouverne ur</w>":4062,"hu man":4063,"li beri":4064,"li erte</w>":4065,"hay ek":4066,"kran ken":4067,"kop f</w>":4068,"bat ter":4069,"hin gerichtet</w>":4070,"the ma</w>":4071,"vier tel</w>":4072,"ssi on</w>":4073,"eingestu ft</w>":4074,"welt kriegs</w>":4075,"nor d</w>":4076,"schmer zen</w>":4077,"mar ine</w>":4078,"sexu elle</w>":4079,"v aku":4080,"allgem ein</w>":4081,"konföder ation</w>":4082,"moder nen</w>":4083,"barcel ona</w>":4084,"kon serv":4085,"auf zug</w>":4086,"sta ti":4087,"sequ en":4088,"wis sen</w>":4089,"tion s</w>":4090,"rangi ert</w>":4091,"katal anisch</w>":4092,"über le":4093,"9 2</w>":4094,"geri chte</w>":4095,"gemei nde</w>":4096,"f ek":4097,"ent er":4098,"sie g</w>":4099,"satelli ten</w>":4100,"hayek s</w>":4101,"lie ß</w>":4102,"vol k</w>":4103,"fir ma</w>":4104,"ver brechen</w>":4105,"dri tt":4106,"199 5</w>":4107,"zer stör":4108,"fei er":4109,"ch ol":4110,"präsident schafts":4111,"m ale</w>":4112,"kt or</w>":4113,"briti sh</w>":4114,"gesam t":4115,"be ein":4116,"ho hen</w>":4117,"medi zin":4118,"prin z</w>":4119,"geschi ckt</w>":4120,"arbei tet</w>":4121,"verbo ten</w>":4122,"7 8</w>":4123,"prop he":4124,"kap azi":4125,"men ge</w>":4126,"chop ins</w>":4127,"a h":4128,"we der</w>":4129,"si ve</w>":4130,"a v":4131,"é ri":4132,"den s</w>":4133,"ger in":4134,"p hän":4135,"prei s":4136,"ma ssachusetts</w>":4137,"f bi</w>":4138,"pro fi":4139,"sti zi":4140,"et y</w>":4141,"ri ba</w>":4142,"gesch ah</w>":4143,"stell er</w>":4144,"anal y":4145,"gener al":4146,"exi stenz</w>":4147,"ala y":4148,"ju li":4149,"mis s":4150,"s utras</w>":4151,"verfü gung</w>":4152,"dru ck":4153,"lö sung</w>":4154,"fern sehen</w>":4155,"194 8</w>":4156,"pap st</w>":4157,"f ern</w>":4158,"ar ena</w>":4159,"ori enti":4160,"su n</w>":4161,"phi ladelphia</w>":4162,"sp er":4163,"ele ment</w>":4164,"ma y":4165,"ma g":4166,"kilom eter</w>":4167,"e mon":4168,"pro to":4169,"t v</w>":4170,"sch wä":4171,"gel i":4172,"konserv a":4173,"tran si":4174,"fo nds</w>":4175,"on er</w>":4176,"met ap":4177,"spra ch":4178,"ver lan":4179,"r es</w>":4180,"alex ander</w>":4181,"fl ei":4182,"wör ter</w>":4183,"bil de":4184,"wer te</w>":4185,"zeit schrift</w>":4186,"ne w":4187,"erforder lich</w>":4188,"grü nde</w>":4189,"ob jekte</w>":4190,"men s</w>":4191,"besch ränk":4192,"unterschied liche</w>":4193,"th ür":4194,"gr ä":4195,"f s":4196,"offi zi":4197,"korrup tion</w>":4198,"k lin":4199,"lehr er</w>":4200,"n et":4201,"si chti":4202,"versamm lung</w>":4203,"in sti":4204,"insti tut":4205,"gen ö":4206,"t ie</w>":4207,"chin esen</w>":4208,"jap anische</w>":4209,"för mi":4210,"portugie sischen</w>":4211,"ma tisch</w>":4212,"be stehen</w>":4213,"zeich nete</w>":4214,"je den</w>":4215,"c ra":4216,"stif tung</w>":4217,"b ringen</w>":4218,"sch alt":4219,"3 5</w>":4220,"wähl te</w>":4221,"co urt</w>":4222,"span ische</w>":4223,"um welt":4224,"pro fess":4225,"bi t</w>":4226,"m ung</w>":4227,"poly techn":4228,"fre deri":4229,"re agi":4230,"ran ten</w>":4231,"ken nen</w>":4232,"zi ehen</w>":4233,"st ung</w>":4234,"or ismus</w>":4235,"entschie den</w>":4236,"en s":4237,"zin k</w>":4238,"cub s</w>":4239,"be e":4240,"be w":4241,"no bel":4242,"ri chten</w>":4243,"oper a":4244,"u fen</w>":4245,"k tionen</w>":4246,"osexu alität</w>":4247,"ursp rung</w>":4248,"ko s</w>":4249,"uni ted</w>":4250,"klassi schen</w>":4251,"la mp":4252,"d ing</w>":4253,"i m":4254,"se t</w>":4255,"fr é":4256,"in en</w>":4257,"la n</w>":4258,"frei maur":4259,"an lagen</w>":4260,"ne ur":4261,"region ale</w>":4262,"cor e</w>":4263,"arme en</w>":4264,"to s</w>":4265,"m eine</w>":4266,"brei te</w>":4267,"comi cs</w>":4268,"vi ze":4269,"genö ssi":4270,"mittel alter</w>":4271,"phili pp":4272,"i re</w>":4273,"veröffentlich te</w>":4274,"olo gi":4275,"tz te</w>":4276,"ra ke":4277,"ra ja":4278,"s ank":4279,"sank tionen</w>":4280,"m ur":4281,"b rü":4282,"x xi":4283,"xxi ii</w>":4284,"na cht</w>":4285,"ur he":4286,"urhe ber":4287,"sen heit</w>":4288,"hel ena</w>":4289,"qu ar":4290,"5 5</w>":4291,"fe der":4292,"la tionen</w>":4293,"b in</w>":4294,"199 7</w>":4295,"dis c</w>":4296,"schütz en</w>":4297,"univers al</w>":4298,"au th":4299,"uni code</w>":4300,"venezol aner</w>":4301,"spitz name</w>":4302,"er ba":4303,"scho tt":4304,"schott land</w>":4305,"deck ung</w>":4306,"komm un":4307,"er wä":4308,"häufi gsten</w>":4309,"skop ischen</w>":4310,"jähr liche</w>":4311,"geschi eht</w>":4312,"wahr e</w>":4313,"auf zu":4314,"t al</w>":4315,"prof es":4316,"fré d":4317,"fréd éri":4318,"schwe ster</w>":4319,"kreu z":4320,"ge misch":4321,"re fer":4322,"l et":4323,"a en":4324,"g ini":4325,"on y</w>":4326,"min g</w>":4327,"m y":4328,"lie gt</w>":4329,"a nd":4330,"w ol":4331,"k al</w>":4332,"us d</w>":4333,"k ins</w>":4334,"195 2</w>":4335,"zer emon":4336,"te nde</w>":4337,"zol l</w>":4338,"197 6</w>":4339,"dri ch</w>":4340,"frie drich</w>":4341,"tause nd</w>":4342,"z ismus</w>":4343,"so hn</w>":4344,"yan mar</w>":4345,"m yanmar</w>":4346,"nan nte</w>":4347,"dri tte</w>":4348,"n y":4349,"vi ew</w>":4350,"span isch</w>":4351,"teil nehmer</w>":4352,"ro ute</w>":4353,"se e</w>":4354,"mä chti":4355,"eli mini":4356,"soci ety</w>":4357,"geb urt</w>":4358,"f isch</w>":4359,"kat h":4360,"o d":4361,"man gel</w>":4362,"amts zeit</w>":4363,"wei ßen</w>":4364,"verwal tungs":4365,"197 3</w>":4366,"il s</w>":4367,"fähi gkeiten</w>":4368,"e sten</w>":4369,"hyderab ad</w>":4370,"fe st</w>":4371,"dar f</w>":4372,"kultur en</w>":4373,"chine sische</w>":4374,"ständi g</w>":4375,"in stal":4376,"b lie":4377,"kor re":4378,"dar gestellt</w>":4379,"ste ch":4380,"p ä":4381,"h eter":4382,"je der</w>":4383,"franz osen</w>":4384,"ein geladen</w>":4385,"k le":4386,"sommer zeit</w>":4387,"sicher heits":4388,"sa nd":4389,"profes sion":4390,"k rö":4391,"regel n</w>":4392,"wech sel</w>":4393,"prophe ten</w>":4394,"jahrzeh nte</w>":4395,"wissenschaft liche</w>":4396,"ni </w>":4397,"a stro":4398,"sym b":4399,"ar ische</w>":4400,"lich t":4401,"ß e</w>":4402,"m y</w>":4403,"5 8</w>":4404,"philosop hen</w>":4405,"gelegen heiten</w>":4406,"ak te</w>":4407,"sti erten</w>":4408,"vor ha":4409,"protestan ten</w>":4410,"berei che</w>":4411,"organ ismus</w>":4412,"wissen schaften</w>":4413,"gemeinsam e</w>":4414,"syna go":4415,"schlä ge</w>":4416,"sy mmet":4417,"ex p":4418,"moni ca</w>":4419,"tz ahl</w>":4420,"öst lichen</w>":4421,"eig h</w>":4422,"pe di":4423,"li ban":4424,"gesell schaften</w>":4425,"197 2</w>":4426,"nom men</w>":4427,"o k</w>":4428,"bo t":4429,"schwarz e</w>":4430,"al e":4431,"gri ffen</w>":4432,"st all":4433,"sch reiben</w>":4434,"c al</w>":4435,"amts sprache</w>":4436,"er öffnet</w>":4437,"sch uss</w>":4438,"mp </w>":4439,"ge stal":4440,"________________________________________________________________ ________________________________________________________________":4441,"ge worden</w>":4442,"unterschie d</w>":4443,"sch utz":4444,"ra hmen</w>":4445,"n ger</w>":4446,"mon te":4447,"l ösen</w>":4448,"woll en</w>":4449,"r m</w>":4450,"k ing</w>":4451,"am o":4452,"mis sion":4453,"süd lichen</w>":4454,"austr al":4455,"profess or</w>":4456,"bu ch":4457,"kath mand":4458,"ha f":4459,"gab en</w>":4460,"ver ur":4461,"ter e</w>":4462,"ar en</w>":4463,"clu bs</w>":4464,"tsche ch":4465,"somali a</w>":4466,"budd hismus</w>":4467,"m ie</w>":4468,"sch utz</w>":4469,"gre mi":4470,"ge hei":4471,"indi genen</w>":4472,"col um":4473,"fä l":4474,"pun k</w>":4475,"auf nahme</w>":4476,"ven tion</w>":4477,"behand elt</w>":4478,"hal b":4479,"kathmand u</w>":4480,"netz werk</w>":4481,"spor ts</w>":4482,"mi ami</w>":4483,"re de</w>":4484,"den k":4485,"ober sten</w>":4486,"alter na":4487,"hand lung</w>":4488,"durchschnitt liche</w>":4489,"che ster</w>":4490,"terr orismus</w>":4491,"benutz er</w>":4492,"nd o</w>":4493,"organi siert</w>":4494,"na hen</w>":4495,"g ung":4496,"ern te</w>":4497,"produ zierte</w>":4498,"3 00</w>":4499,"ed ward</w>":4500,"gelehr te</w>":4501,"4 2</w>":4502,"gebrau ch</w>":4503,"jap anischen</w>":4504,"i zi":4505,"mü n":4506,"arbei ter":4507,"rie si":4508,"w y":4509,"finanziel le</w>":4510,"le e</w>":4511,"ra sse</w>":4512,"blie b</w>":4513,"gericht s":4514,"zeich nen</w>":4515,"frü her</w>":4516,"mar ki":4517,"not we":4518,"ff er":4519,"he u":4520,"ant hr":4521,"histor ischen</w>":4522,"kri tik</w>":4523,"da chte</w>":4524,"ant ar":4525,"glü h":4526,"hiel ten</w>":4527,"au to</w>":4528,"mi ch":4529,"6 7</w>":4530,"ausge geben</w>":4531,"histor ische</w>":4532,"ba hnen</w>":4533,"ver hal":4534,"bra chte</w>":4535,"da vi":4536,"tause nde</w>":4537,"or ie</w>":4538,"ge storben</w>":4539,"verpflich tet</w>":4540,"sul tan</w>":4541,"y a":4542,"führ ten</w>":4543,"es e</w>":4544,"wirk te</w>":4545,"dien st</w>":4546,"vorha nden</w>":4547,"bedro hung</w>":4548,"könig liche</w>":4549,"sch on</w>":4550,"auf zunehmen</w>":4551,"verhal ten":4552,"je mand</w>":4553,"frei en</w>":4554,"kreu z</w>":4555,"cht ung</w>":4556,"da mit</w>":4557,"r on</w>":4558,"hen ry</w>":4559,"ge währ":4560,"verteidi gungs":4561,"z y":4562,"thei smus</w>":4563,"a ten</w>":4564,"prob lem</w>":4565,"di plo":4566,"z a</w>":4567,"dom in":4568,"parla ment</w>":4569,"neu se":4570,"neuse ela":4571,"orthodox en</w>":4572,"an gelegenheiten</w>":4573,"di chter</w>":4574,"mi cro":4575,"fi kation</w>":4576,"enz en</w>":4577,"hand lungen</w>":4578,"jähr i":4579,"funk tionen</w>":4580,"sol ar":4581,"g at":4582,"je de</w>":4583,"eben en</w>":4584,"gehe nd</w>":4585,"g ut":4586,"re aktionen</w>":4587,"k lang</w>":4588,"st ranten</w>":4589,"ho he</w>":4590,"de bat":4591,"fu ß</w>":4592,"lie gen</w>":4593,"besch reiben</w>":4594,"bestimm ten</w>":4595,"flü gel</w>":4596,"imp f":4597,"w ater</w>":4598,"arch ie</w>":4599,"k ali":4600,"zeit genössi":4601,"bestimm t</w>":4602,"m alay":4603,"fizi erte</w>":4604,"st ar</w>":4605,"intere sse</w>":4606,"archite kt":4607,"u an</w>":4608,"6 8</w>":4609,"ho tel</w>":4610,"gen s</w>":4611,"anthr op":4612,"gi l":4613,"her stellung</w>":4614,"nieder lage</w>":4615,"lu ft</w>":4616,"re tt":4617,"anerkan nt</w>":4618,"an t</w>":4619,"rebel li":4620,"staat lichen</w>":4621,"di es</w>":4622,"plat ten</w>":4623,"thür in":4624,"ima m</w>":4625,"te nden</w>":4626,"inve sti":4627,"f on":4628,"kom bin":4629,"allgem eines</w>":4630,"ad a</w>":4631,"a c</w>":4632,"hi t</w>":4633,"k um</w>":4634,"giegiegiegie giegiegiegie":4635,"am t</w>":4636,"fei nd":4637,"rei ste</w>":4638,"argu mentierte</w>":4639,"ral eigh</w>":4640,"f all":4641,"kontin ent</w>":4642,"nder t</w>":4643,". \"</w>":4644,"einfa ch</w>":4645,"rest au":4646,"ein heiten</w>":4647,"arbei tung</w>":4648,"rus sisch</w>":4649,"fil ms</w>":4650,"besch reibt</w>":4651,"vo gel":4652,"mus ste</w>":4653,"raja st":4654,"verbo t</w>":4655,"so u":4656,"völk ermor":4657,"an fä":4658,"bis s":4659,"ge teilt</w>":4660,"bil dungs":4661,"jun ge</w>":4662,"wa nd</w>":4663,"trä gt</w>":4664,"fi g":4665,"vor teil</w>":4666,"bi er</w>":4667,"kar l</w>":4668,"über tragen</w>":4669,"rajast han</w>":4670,"studi ert</w>":4671,"1 20</w>":4672,"sowje tische</w>":4673,"k ern":4674,"frie den</w>":4675,"e di":4676,"allgem einen</w>":4677,"orienti erung</w>":4678,"si a</w>":4679,"erneu er":4680,"stra hlt</w>":4681,"ausge strahlt</w>":4682,"mä chte</w>":4683,"ri ver</w>":4684,"ali siert</w>":4685,"pak i":4686,"ã o</w>":4687,"que ens</w>":4688,"aus bildung</w>":4689,"a z":4690,"a y":4691,"h nt</w>":4692,"arb or</w>":4693,"konf li":4694,"ri </w>":4695,"ta tion</w>":4696,"abschni tt</w>":4697,"p h</w>":4698,"weiter e</w>":4699,"studi erte</w>":4700,"an sichten</w>":4701,"belie bte</w>":4702,"viel en</w>":4703,"k tion":4704,"person al</w>":4705,"ge zogen</w>":4706,"gele gt</w>":4707,"jähr lich</w>":4708,"regi erung":4709,"di vi":4710,"plat te</w>":4711,"er war":4712,"meer es":4713,"tibe t</w>":4714,"go t":4715,"pe stizi":4716,"sen al</w>":4717,"ar senal</w>":4718,"dri d</w>":4719,"beam ten</w>":4720,"er stellt</w>":4721,"ei s":4722,"c u":4723,"gerichtsho f</w>":4724,"se y</w>":4725,"sp ru":4726,"ber ge</w>":4727,"re form</w>":4728,"ann eli":4729,"erwachsen en</w>":4730,"domini kan":4731,"195 9</w>":4732,"manhatt an</w>":4733,"z an":4734,"sozi al":4735,"se ch":4736,"shi p</w>":4737,"ex tre":4738,"i d</w>":4739,"mo un":4740,"ko ali":4741,"regi erungen</w>":4742,"alas kas</w>":4743,"is p</w>":4744,"demon stranten</w>":4745,"fen ster</w>":4746,"fal sche</w>":4747,"e b":4748,"fa mili":4749,"bo ards</w>":4750,"bo li":4751,"b lich</w>":4752,"ter ne</w>":4753,"re aktion</w>":4754,"kandi da":4755,"ab geschlossen</w>":4756,"ab kürz":4757,"kam mer</w>":4758,"luft wa":4759,"fre qu":4760,"tren nte</w>":4761,"tran spor":4762,"luft fahr":4763,"ein sch":4764,"steu ern</w>":4765,"vereinbar ung</w>":4766,"si tze</w>":4767,"et hn":4768,"er mög":4769,"lich kei":4770,"ti me</w>":4771,"ab teilung</w>":4772,"einwander ung</w>":4773,"ent weder</w>":4774,"d ge</w>":4775,"; </w>":4776,"er sch":4777,"vari ation</w>":4778,"ehemali ge</w>":4779,"197 7</w>":4780,"unabhängi ge</w>":4781,"23 5</w>":4782,"c ap":4783,"ab gesch":4784,"dien en</w>":4785,"as erba":4786,"i eren</w>":4787,"offensi ve</w>":4788,"buch stab":4789,"ri schen</w>":4790,"pati enten</w>":4791,"ungs an":4792,"c li":4793,"char le":4794,"c op":4795,"wichti gen</w>":4796,"196 7</w>":4797,"po ten":4798,"c ur":4799,"9 9</w>":4800,"c ti":4801,"flei sch</w>":4802,"menschen rechte</w>":4803,"n um":4804,"arz nei":4805,"anwe senheit</w>":4806,"slo wen":4807,"betrie b":4808,"sp häre</w>":4809,"kli ma":4810,"kinder arbeit</w>":4811,"bewe gen</w>":4812,"feder al</w>":4813,"nah me":4814,"entschei d":4815,"l ong</w>":4816,"konstan te</w>":4817,"zeich nung</w>":4818,"t oren</w>":4819,"entschei dung</w>":4820,"gesetz es":4821,"miss brau":4822,"gini a</w>":4823,"frü h</w>":4824,"jo ão</w>":4825,"di cht</w>":4826,"ab d":4827,"d ür":4828,"tan z</w>":4829,"latein ische</w>":4830,"g n</w>":4831,"ereig nete</w>":4832,"basi ert</w>":4833,"ad s</w>":4834,"lehr e</w>":4835,"kon text</w>":4836,"ger man":4837,"bermu da</w>":4838,"abge halten</w>":4839,"glüh bir":4840,"re formen</w>":4841,"pal er":4842,"öffent lichkeit</w>":4843,"or na":4844,"flie gen</w>":4845,"uri tan":4846,"kandida t</w>":4847,"arab ische</w>":4848,"jo sep":4849,"nat o</w>":4850,"grund sätze</w>":4851,"kor an</w>":4852,"protestan tische</w>":4853,"ur op":4854,"ste urop":4855,"gel ten</w>":4856,"sy l":4857,"eli za":4858,"nö tig</w>":4859,"jahr es":4860,"b on":4861,"t land</w>":4862,"b lü":4863,"g ar</w>":4864,"comi c</w>":4865,"be darf</w>":4866,"sh i</w>":4867,"por t</w>":4868,"kathedr alen</w>":4869,"ketz erei</w>":4870,"mon archie</w>":4871,"fü l":4872,"über wie":4873,"lab el</w>":4874,"industri ellen</w>":4875,"par tei":4876,"si </w>":4877,"z in</w>":4878,"tion spro":4879,"niederländ isch</w>":4880,"i erung</w>":4881,"be handel":4882,"hi re</w>":4883,"r und</w>":4884,"on y":4885,"pol e</w>":4886,"wahr nehm":4887,"ck a":4888,"bü ro":4889,"gewin ner</w>":4890,"b ein":4891,"ober ste</w>":4892}}